{
  "version": "1.0",
  "truncation": null,
  "padding": null,
  "added_tokens": [
    {
      "id": 0,
      "content": "[PAD]",
      "single_word": false,
      "lstrip": false,
      "rstrip": false,
      "normalized": false,
      "special": true
    },
    {
      "id": 1,
      "content": "[UNK]",
      "single_word": false,
      "lstrip": false,
      "rstrip": false,
      "normalized": false,
      "special": true
    },
    {
      "id": 2,
      "content": "[CLS]",
      "single_word": false,
      "lstrip": false,
      "rstrip": false,
      "normalized": false,
      "special": true
    },
    {
      "id": 3,
      "content": "[SEP]",
      "single_word": false,
      "lstrip": false,
      "rstrip": false,
      "normalized": false,
      "special": true
    },
    {
      "id": 4,
      "content": "[MASK]",
      "single_word": false,
      "lstrip": false,
      "rstrip": false,
      "normalized": false,
      "special": true
    }
  ],
  "normalizer": {
    "type": "BertNormalizer",
    "clean_text": true,
    "handle_chinese_chars": true,
    "strip_accents": null,
    "lowercase": false
  },
  "pre_tokenizer": {
    "type": "BertPreTokenizer"
  },
  "post_processor": {
    "type": "TemplateProcessing",
    "single": [
      {
        "SpecialToken": {
          "id": "[CLS]",
          "type_id": 0
        }
      },
      {
        "Sequence": {
          "id": "A",
          "type_id": 0
        }
      },
      {
        "SpecialToken": {
          "id": "[SEP]",
          "type_id": 0
        }
      }
    ],
    "pair": [
      {
        "SpecialToken": {
          "id": "[CLS]",
          "type_id": 0
        }
      },
      {
        "Sequence": {
          "id": "A",
          "type_id": 0
        }
      },
      {
        "SpecialToken": {
          "id": "[SEP]",
          "type_id": 0
        }
      },
      {
        "Sequence": {
          "id": "B",
          "type_id": 1
        }
      },
      {
        "SpecialToken": {
          "id": "[SEP]",
          "type_id": 1
        }
      }
    ],
    "special_tokens": {
      "[CLS]": {
        "id": "[CLS]",
        "ids": [
          2
        ],
        "tokens": [
          "[CLS]"
        ]
      },
      "[SEP]": {
        "id": "[SEP]",
        "ids": [
          3
        ],
        "tokens": [
          "[SEP]"
        ]
      }
    }
  },
  "decoder": {
    "type": "WordPiece",
    "prefix": "##",
    "cleanup": true
  },
  "model": {
    "type": "WordPiece",
    "unk_token": "[UNK]",
    "continuing_subword_prefix": "##",
    "max_input_chars_per_word": 100,
    "vocab": {
      "[PAD]": 0,
      "[UNK]": 1,
      "[CLS]": 2,
      "[SEP]": 3,
      "[MASK]": 4,
      "о": 5,
      "е": 6,
      "а": 7,
      "и": 8,
      "т": 9,
      "н": 10,
      "с": 11,
      "р": 12,
      "в": 13,
      "л": 14,
      "к": 15,
      "м": 16,
      "д": 17,
      "п": 18,
      "у": 19,
      ",": 20,
      "ы": 21,
      "ь": 22,
      "я": 23,
      ".": 24,
      "б": 25,
      "ч": 26,
      "з": 27,
      "г": 28,
      "й": 29,
      "ж": 30,
      "х": 31,
      "ш": 32,
      "ю": 33,
      "ц": 34,
      "э": 35,
      "щ": 36,
      "\u0000": 37,
      "\"": 38,
      "?": 39,
      "ф": 40,
      "П": 41,
      "В": 42,
      "Н": 43,
      "e": 44,
      "-": 45,
      "С": 46,
      "0": 47,
      "—": 48,
      "a": 49,
      "o": 50,
      "t": 51,
      "А": 52,
      "1": 53,
      "К": 54,
      "r": 55,
      ")": 56,
      "–": 57,
      "i": 58,
      "О": 59,
      "И": 60,
      "ё": 61,
      "Т": 62,
      "Д": 63,
      "М": 64,
      "Р": 65,
      "n": 66,
      "!": 67,
      "2": 68,
      "(": 69,
      "u": 70,
      "s": 71,
      ":": 72,
      "Е": 73,
      "l": 74,
      "Я": 75,
      "d": 76,
      "3": 77,
      "h": 78,
      "5": 79,
      "Б": 80,
      "Э": 81,
      "У": 82,
      "4": 83,
      "Г": 84,
      "9": 85,
      "З": 86,
      "m": 87,
      "Л": 88,
      "7": 89,
      "c": 90,
      "Ч": 91,
      "6": 92,
      "8": 93,
      "g": 94,
      ";": 95,
      "p": 96,
      "«": 97,
      "»": 98,
      "/": 99,
      "f": 100,
      "Х": 101,
      "&": 102,
      "Ф": 103,
      "y": 104,
      "=": 105,
      "k": 106,
      "_": 107,
      "v": 108,
      "S": 109,
      "A": 110,
      "b": 111,
      "ъ": 112,
      "q": 113,
      "w": 114,
      "T": 115,
      "I": 116,
      "Ш": 117,
      "D": 118,
      "M": 119,
      ">": 120,
      "C": 121,
      "Ж": 122,
      "R": 123,
      "P": 124,
      "B": 125,
      "x": 126,
      "%": 127,
      "E": 128,
      "X": 129,
      "H": 130,
      "N": 131,
      "z": 132,
      "G": 133,
      "F": 134,
      "O": 135,
      "K": 136,
      "Ц": 137,
      "<": 138,
      "]": 139,
      "[": 140,
      "L": 141,
      "U": 142,
      "*": 143,
      "V": 144,
      "|": 145,
      "#": 146,
      "Ю": 147,
      "W": 148,
      "і": 149,
      "+": 150,
      "…": 151,
      "@": 152,
      "Ы": 153,
      "Й": 154,
      "j": 155,
      "Ь": 156,
      "'": 157,
      "J": 158,
      "Y": 159,
      "Z": 160,
      "$": 161,
      "“": 162,
      "Q": 163,
      "\\": 164,
      "”": 165,
      "­": 166,
      "№": 167,
      "Щ": 168,
      "•": 169,
      "̶": 170,
      "ї": 171,
      "~": 172,
      "Ё": 173,
      "є": 174,
      "’": 175,
      "©": 176,
      "^": 177,
      "°": 178,
      "😂": 179,
      "↑": 180,
      "™": 181,
      "😆": 182,
      "́": 183,
      "}": 184,
      "{": 185,
      "„": 186,
      "−": 187,
      "Ъ": 188,
      "▬": 189,
      "·": 190,
      "##о": 191,
      "##е": 192,
      "##а": 193,
      "##и": 194,
      "##т": 195,
      "##н": 196,
      "##с": 197,
      "##р": 198,
      "##в": 199,
      "##л": 200,
      "##к": 201,
      "##м": 202,
      "##д": 203,
      "##п": 204,
      "##у": 205,
      "##,": 206,
      "##ы": 207,
      "##ь": 208,
      "##я": 209,
      "##.": 210,
      "##б": 211,
      "##ч": 212,
      "##з": 213,
      "##г": 214,
      "##й": 215,
      "##ж": 216,
      "##х": 217,
      "##ш": 218,
      "##ю": 219,
      "##ц": 220,
      "##э": 221,
      "##щ": 222,
      "##\u0000": 223,
      "##\"": 224,
      "##?": 225,
      "##ф": 226,
      "##П": 227,
      "##В": 228,
      "##Н": 229,
      "##e": 230,
      "##-": 231,
      "##С": 232,
      "##0": 233,
      "##—": 234,
      "##a": 235,
      "##o": 236,
      "##t": 237,
      "##А": 238,
      "##1": 239,
      "##К": 240,
      "##r": 241,
      "##)": 242,
      "##–": 243,
      "##i": 244,
      "##О": 245,
      "##И": 246,
      "##ё": 247,
      "##Т": 248,
      "##Д": 249,
      "##М": 250,
      "##Р": 251,
      "##n": 252,
      "##!": 253,
      "##2": 254,
      "##(": 255,
      "##u": 256,
      "##s": 257,
      "##:": 258,
      "##Е": 259,
      "##l": 260,
      "##Я": 261,
      "##d": 262,
      "##3": 263,
      "##h": 264,
      "##5": 265,
      "##Б": 266,
      "##Э": 267,
      "##У": 268,
      "##4": 269,
      "##Г": 270,
      "##9": 271,
      "##З": 272,
      "##m": 273,
      "##Л": 274,
      "##7": 275,
      "##c": 276,
      "##Ч": 277,
      "##6": 278,
      "##8": 279,
      "##g": 280,
      "##;": 281,
      "##p": 282,
      "##«": 283,
      "##»": 284,
      "##/": 285,
      "##f": 286,
      "##Х": 287,
      "##&": 288,
      "##Ф": 289,
      "##y": 290,
      "##=": 291,
      "##k": 292,
      "##_": 293,
      "##v": 294,
      "##S": 295,
      "##A": 296,
      "##b": 297,
      "##ъ": 298,
      "##q": 299,
      "##w": 300,
      "##T": 301,
      "##I": 302,
      "##Ш": 303,
      "##D": 304,
      "##M": 305,
      "##>": 306,
      "##C": 307,
      "##Ж": 308,
      "##R": 309,
      "##P": 310,
      "##B": 311,
      "##x": 312,
      "##%": 313,
      "##E": 314,
      "##X": 315,
      "##H": 316,
      "##N": 317,
      "##z": 318,
      "##G": 319,
      "##F": 320,
      "##O": 321,
      "##K": 322,
      "##Ц": 323,
      "##<": 324,
      "##]": 325,
      "##[": 326,
      "##L": 327,
      "##U": 328,
      "##*": 329,
      "##V": 330,
      "##|": 331,
      "###": 332,
      "##Ю": 333,
      "##W": 334,
      "##і": 335,
      "##+": 336,
      "##…": 337,
      "##@": 338,
      "##Ы": 339,
      "##Й": 340,
      "##j": 341,
      "##Ь": 342,
      "##'": 343,
      "##J": 344,
      "##Y": 345,
      "##Z": 346,
      "##$": 347,
      "##“": 348,
      "##Q": 349,
      "##\\": 350,
      "##”": 351,
      "##­": 352,
      "##№": 353,
      "##Щ": 354,
      "##•": 355,
      "##̶": 356,
      "##ї": 357,
      "##~": 358,
      "##Ё": 359,
      "##є": 360,
      "##’": 361,
      "##©": 362,
      "##^": 363,
      "##°": 364,
      "##😂": 365,
      "##↑": 366,
      "##™": 367,
      "##😆": 368,
      "##́": 369,
      "##}": 370,
      "##{": 371,
      "##„": 372,
      "##−": 373,
      "##Ъ": 374,
      "##▬": 375,
      "##·": 376,
      "##то": 377,
      "##но": 378,
      "##ра": 379,
      "##ро": 380,
      "##ко": 381,
      "##ст": 382,
      "##ен": 383,
      "по": 384,
      "##ли": 385,
      "##ет": 386,
      "##ка": 387,
      "##го": 388,
      "на": 389,
      "не": 390,
      "##ре": 391,
      "##ть": 392,
      "##ль": 393,
      "##ва": 394,
      "##ри": 395,
      "##ни": 396,
      "##ло": 397,
      "##ла": 398,
      "##за": 399,
      "##на": 400,
      "##ны": 401,
      "##во": 402,
      "##ки": 403,
      "##ер": 404,
      "##да": 405,
      "##ся": 406,
      "##ем": 407,
      "##та": 408,
      "то": 409,
      "##те": 410,
      "за": 411,
      "ко": 412,
      "что": 413,
      "##ти": 414,
      "##ле": 415,
      "про": 416,
      "ка": 417,
      "##ени": 418,
      "ра": 419,
      "##ди": 420,
      "##ру": 421,
      "##же": 422,
      "##ви": 423,
      "##де": 424,
      "##ми": 425,
      "это": 426,
      "##не": 427,
      "бы": 428,
      "мо": 429,
      "##ля": 430,
      "##мо": 431,
      "та": 432,
      "##ма": 433,
      "##хо": 434,
      "во": 435,
      "от": 436,
      "##бо": 437,
      "до": 438,
      "со": 439,
      "##се": 440,
      "вы": 441,
      "##до": 442,
      "##чи": 443,
      "при": 444,
      "##ци": 445,
      "##сь": 446,
      "##че": 447,
      "##ча": 448,
      "##ры": 449,
      "##по": 450,
      "##ве": 451,
      "##ста": 452,
      "##си": 453,
      "##сто": 454,
      "го": 455,
      "##\u0000\u0000": 456,
      "##сть": 457,
      "##ку": 458,
      "об": 459,
      "##лу": 460,
      "##ну": 461,
      "##ду": 462,
      "##жи": 463,
      "##сти": 464,
      "##ше": 465,
      "но": 466,
      "##ши": 467,
      "##лю": 468,
      "##со": 469,
      "как": 470,
      "##льно": 471,
      "из": 472,
      "##ще": 473,
      "да": 474,
      "ни": 475,
      "все": 476,
      "##па": 477,
      "##му": 478,
      "##ют": 479,
      "##ме": 480,
      "ре": 481,
      "де": 482,
      "раз": 483,
      "##га": 484,
      "##ско": 485,
      "бо": 486,
      "##ги": 487,
      "##ски": 488,
      "##жно": 489,
      "##ный": 490,
      "##ту": 491,
      "##вы": 492,
      "те": 493,
      "##ере": 494,
      "##са": 495,
      "##мен": 496,
      "##ные": 497,
      "##ей": 498,
      "##ня": 499,
      "##пи": 500,
      "##ты": 501,
      "ма": 502,
      "По": 503,
      "хо": 504,
      "##жа": 505,
      "##ень": 506,
      "##ется": 507,
      "под": 508,
      "ва": 509,
      "##ения": 510,
      "са": 511,
      "пре": 512,
      "##вать": 513,
      "##ной": 514,
      "##би": 515,
      "##щи": 516,
      "кото": 517,
      "##лько": 518,
      "##гда": 519,
      "бу": 520,
      "##ного": 521,
      "##ных": 522,
      "##сли": 523,
      "так": 524,
      "же": 525,
      "##ение": 526,
      "##ря": 527,
      "ли": 528,
      "ме": 529,
      "##..": 530,
      "##\u0000\u0000\u0000\u0000": 531,
      "па": 532,
      "##чно": 533,
      "##ств": 534,
      "##бе": 535,
      "##ут": 536,
      "##бы": 537,
      "##вер": 538,
      "ве": 539,
      "для": 540,
      "сво": 541,
      "##ша": 542,
      "##зо": 543,
      "##шь": 544,
      "ста": 545,
      "##дет": 546,
      "...": 547,
      "##кой": 548,
      "##ак": 549,
      "##ная": 550,
      "си": 551,
      "##пе": 552,
      "се": 553,
      "##зи": 554,
      "бе": 555,
      "ви": 556,
      "ст": 557,
      "ми": 558,
      "лю": 559,
      "##ска": 560,
      "сто": 561,
      "##ке": 562,
      "зна": 563,
      "пере": 564,
      "##вет": 565,
      "##мы": 566,
      "##жет": 567,
      "##ды": 568,
      "мен": 569,
      "##ему": 570,
      "##про": 571,
      "##це": 572,
      "##об": 573,
      "он": 574,
      "##ться": 575,
      "##ров": 576,
      "##ят": 577,
      "##лет": 578,
      "На": 579,
      "##сси": 580,
      "##енно": 581,
      "##ство": 582,
      "мы": 583,
      "##сле": 584,
      "или": 585,
      "есть": 586,
      "ин": 587,
      "которы": 588,
      "##рав": 589,
      "##ба": 590,
      "##нов": 591,
      "ты": 592,
      "если": 593,
      "##мер": 594,
      "##зы": 595,
      "че": 596,
      "дру": 597,
      "жи": 598,
      "##каза": 599,
      "вс": 600,
      "его": 601,
      "##ния": 602,
      "рас": 603,
      "##гра": 604,
      "##су": 605,
      "Но": 606,
      "меня": 607,
      "##лся": 608,
      "##тель": 609,
      "боль": 610,
      "ну": 611,
      "##гу": 612,
      "##тся": 613,
      "##нима": 614,
      "##ции": 615,
      "##пу": 616,
      "##дно": 617,
      "только": 618,
      "##ние": 619,
      "уже": 620,
      "было": 621,
      "нет": 622,
      "##ным": 623,
      "##лы": 624,
      "##ков": 625,
      "##вно": 626,
      "Да": 627,
      "су": 628,
      "##00": 629,
      "##зу": 630,
      "Это": 631,
      "##тельно": 632,
      "##ха": 633,
      "кон": 634,
      "Во": 635,
      "ро": 636,
      "ку": 637,
      "ру": 638,
      "##чень": 639,
      "рабо": 640,
      "##ца": 641,
      "Не": 642,
      "##ву": 643,
      "ис": 644,
      "##том": 645,
      "вре": 646,
      "ча": 647,
      "пра": 648,
      "##ща": 649,
      "пи": 650,
      "##бу": 651,
      "##er": 652,
      "они": 653,
      "##ете": 654,
      "##ор": 655,
      "там": 656,
      "просто": 657,
      "будет": 658,
      "##чески": 659,
      "##дь": 660,
      "##сы": 661,
      "##\u0000\u0000\u0000\u0000\u0000\u0000\u0000\u0000": 662,
      "ком": 663,
      "пред": 664,
      "##бя": 665,
      "##тов": 666,
      "##ран": 667,
      "##ходи": 668,
      "##он": 669,
      "мне": 670,
      "когда": 671,
      "можно": 672,
      "##лось": 673,
      "Ро": 674,
      "очень": 675,
      "дол": 676,
      "##лен": 677,
      "##жен": 678,
      "воз": 679,
      "##мот": 680,
      "##ком": 681,
      "вот": 682,
      "ба": 683,
      "##лись": 684,
      "##фи": 685,
      "##рет": 686,
      "##мя": 687,
      "их": 688,
      "##тому": 689,
      "может": 690,
      "##рова": 691,
      "##ное": 692,
      "##ства": 693,
      "чтобы": 694,
      "пер": 695,
      "##лове": 696,
      "##ную": 697,
      "слу": 698,
      "еще": 699,
      "##ром": 700,
      "##кра": 701,
      "само": 702,
      "чем": 703,
      "гово": 704,
      "##став": 705,
      "ду": 706,
      "даже": 707,
      "пу": 708,
      "дела": 709,
      "##сно": 710,
      "##ющи": 711,
      "был": 712,
      "оп": 713,
      "полу": 714,
      "##зна": 715,
      "од": 716,
      "после": 717,
      "эти": 718,
      "##ot": 719,
      "ле": 720,
      "##дела": 721,
      "Вы": 722,
      "##ция": 723,
      "таки": 724,
      "##шо": 725,
      "##ар": 726,
      "стра": 727,
      "Мо": 728,
      "сло": 729,
      "##стви": 730,
      "##вой": 731,
      "лет": 732,
      "##при": 733,
      "челове": 734,
      "##ются": 735,
      "##рой": 736,
      "##re": 737,
      "Ну": 738,
      "она": 739,
      "кто": 740,
      "##сте": 741,
      "##лей": 742,
      "Ко": 743,
      "Росси": 744,
      "##йте": 745,
      "##ан": 746,
      "нас": 747,
      "##ской": 748,
      "фи": 749,
      "##дин": 750,
      "пла": 751,
      "##ном": 752,
      "ско": 753,
      "оста": 754,
      "без": 755,
      "##сту": 756,
      "поч": 757,
      "##рти": 758,
      "быть": 759,
      "##лем": 760,
      "То": 761,
      "где": 762,
      ").": 763,
      "##кти": 764,
      "За": 765,
      "##пер": 766,
      "##жда": 767,
      "##qu": 768,
      "##вто": 769,
      "##тя": 770,
      "ди": 771,
      "##зыва": 772,
      "##жу": 773,
      "##обще": 774,
      "##in": 775,
      "этом": 776,
      "тоже": 777,
      "му": 778,
      "Если": 779,
      "Про": 780,
      "=\"": 781,
      "чи": 782,
      "##ешь": 783,
      "всё": 784,
      "##тно": 785,
      "прои": 786,
      "qu": 787,
      "надо": 788,
      "##ствен": 789,
      "##лее": 790,
      "##an": 791,
      "quot": 792,
      "##час": 793,
      "том": 794,
      "##чита": 795,
      "##ейчас": 796,
      "время": 797,
      "##мет": 798,
      "кра": 799,
      "##лась": 800,
      "Ка": 801,
      "которые": 802,
      "##тере": 803,
      "##дер": 804,
      "лу": 805,
      "тем": 806,
      "сдела": 807,
      "##нь": 808,
      "##ству": 809,
      "##ский": 810,
      "##рави": 811,
      "20": 812,
      "Что": 813,
      "того": 814,
      "##стоя": 815,
      "больше": 816,
      "##тер": 817,
      "##кого": 818,
      "хоро": 819,
      "##нее": 820,
      "мог": 821,
      "тут": 822,
      "##спо": 823,
      "свои": 824,
      "Как": 825,
      "каж": 826,
      "пол": 827,
      "##чего": 828,
      "##кто": 829,
      "##клю": 830,
      "##ально": 831,
      "##ными": 832,
      "##ского": 833,
      "##логи": 834,
      "обра": 835,
      "##сов": 836,
      "\".": 837,
      "работа": 838,
      "##цы": 839,
      "этого": 840,
      "##on": 841,
      "##ней": 842,
      "гла": 843,
      "случа": 844,
      "буду": 845,
      "ту": 846,
      "чу": 847,
      "поня": 848,
      "##нии": 849,
      "вер": 850,
      "##ена": 851,
      "говори": 852,
      "вообще": 853,
      "##вали": 854,
      "##вя": 855,
      "сказа": 856,
      "##стро": 857,
      "##ник": 858,
      "##сло": 859,
      "##зво": 860,
      "При": 861,
      "##кры": 862,
      "##ления": 863,
      "##вая": 864,
      "##пы": 865,
      "много": 866,
      "##кое": 867,
      "##кт": 868,
      "Так": 869,
      "##ред": 870,
      "##вый": 871,
      "##ит": 872,
      "##пол": 873,
      "##ез": 874,
      "##чу": 875,
      "##менно": 876,
      "вз": 877,
      "##вые": 878,
      "##аль": 879,
      "##жд": 880,
      "##писа": 881,
      "кла": 882,
      "##дей": 883,
      "спо": 884,
      "##вает": 885,
      "##мени": 886,
      "##кие": 887,
      "тех": 888,
      "сов": 889,
      "##ск": 890,
      "##at": 891,
      "Ва": 892,
      "име": 893,
      "жиз": 894,
      "вопро": 895,
      "##можно": 896,
      "была": 897,
      "день": 898,
      "##тив": 899,
      "Со": 900,
      "10": 901,
      "##смот": 902,
      "##ника": 903,
      "##\u0000\u0000\u0000\u0000\u0000\u0000\u0000\u0000\u0000\u0000\u0000\u0000\u0000\u0000\u0000\u0000": 904,
      "вас": 905,
      "##ход": 906,
      "##ская": 907,
      "##кая": 908,
      "##щё": 909,
      "##ление": 910,
      "авто": 911,
      "##вал": 912,
      "ки": 913,
      "дума": 914,
      "##тра": 915,
      "который": 916,
      "вам": 917,
      "##дар": 918,
      "иг": 919,
      "##она": 920,
      "луч": 921,
      "себя": 922,
      "##вля": 923,
      "##стра": 924,
      "##ственно": 925,
      "были": 926,
      "##прав": 927,
      "##ении": 928,
      "##спе": 929,
      "Хо": 930,
      "##нечно": 931,
      "помо": 932,
      "##чем": 933,
      "голо": 934,
      "гра": 935,
      "##ять": 936,
      "##ких": 937,
      "Вот": 938,
      "сейчас": 939,
      "них": 940,
      "##рии": 941,
      "##род": 942,
      "##дите": 943,
      "##соб": 944,
      "##рен": 945,
      "##гла": 946,
      "им": 947,
      "фо": 948,
      "пока": 949,
      "),": 950,
      "##фе": 951,
      "##сты": 952,
      "##нет": 953,
      "виде": 954,
      "поли": 955,
      "нача": 956,
      "понима": 957,
      "друго": 958,
      "потому": 959,
      "##вых": 960,
      "##he": 961,
      "##бира": 962,
      "дет": 963,
      "##чь": 964,
      "сле": 965,
      "##id": 966,
      "нужно": 967,
      "га": 968,
      "##бра": 969,
      "##хи": 970,
      "##бой": 971,
      "##ar": 972,
      "ничего": 973,
      "интере": 974,
      "##шу": 975,
      "##ний": 976,
      "проб": 977,
      "пе": 978,
      "Ты": 979,
      "более": 980,
      "ее": 981,
      "##зова": 982,
      "##ин": 983,
      "##рт": 984,
      "всего": 985,
      "##al": 986,
      "##кую": 987,
      "##чет": 988,
      "этот": 989,
      "Ра": 990,
      "ещё": 991,
      "\">": 992,
      "##вить": 993,
      "##фор": 994,
      "##нут": 995,
      "це": 996,
      "##доб": 997,
      "##ге": 998,
      "19": 999,
      "##ению": 1000,
      "\",": 1001,
      "объ": 1002,
      "##торы": 1003,
      "##or": 1004,
      "года": 1005,
      "други": 1006,
      "##ден": 1007,
      "дей": 1008,
      "##цию": 1009,
      "пло": 1010,
      "России": 1011,
      "##гля": 1012,
      "##ники": 1013,
      "##ёт": 1014,
      "##юсь": 1015,
      "##лли": 1016,
      "##ваться": 1017,
      "##ших": 1018,
      "Ни": 1019,
      "потом": 1020,
      "Бо": 1021,
      "тебя": 1022,
      "один": 1023,
      "Та": 1024,
      "##en": 1025,
      "Он": 1026,
      "почему": 1027,
      "прави": 1028,
      "##ских": 1029,
      "##дом": 1030,
      "всех": 1031,
      "ос": 1032,
      "него": 1033,
      "##стью": 1034,
      "##пла": 1035,
      "##ками": 1036,
      "##шей": 1037,
      "ла": 1038,
      "##стре": 1039,
      "зако": 1040,
      "такой": 1041,
      "доро": 1042,
      "##лом": 1043,
      "проблем": 1044,
      "##пре": 1045,
      "сторо": 1046,
      "##кла": 1047,
      "##перь": 1048,
      "##реть": 1049,
      "исто": 1050,
      "##ерез": 1051,
      "Ма": 1052,
      "##сс": 1053,
      "ло": 1054,
      "##ены": 1055,
      "одно": 1056,
      "##ений": 1057,
      "##вое": 1058,
      "##ru": 1059,
      "себе": 1060,
      "##йти": 1061,
      "Все": 1062,
      "##вод": 1063,
      "##вают": 1064,
      "##пример": 1065,
      "испо": 1066,
      "получи": 1067,
      "##чки": 1068,
      "##ские": 1069,
      "##ём": 1070,
      "##un": 1071,
      "именно": 1072,
      "##дов": 1073,
      "конечно": 1074,
      "##сла": 1075,
      "ти": 1076,
      "вла": 1077,
      "##сем": 1078,
      "##сколько": 1079,
      "##мента": 1080,
      "этой": 1081,
      "Мы": 1082,
      "От": 1083,
      "##рма": 1084,
      "re": 1085,
      "##ением": 1086,
      "счита": 1087,
      "##ев": 1088,
      "знаю": 1089,
      "ника": 1090,
      "Нет": 1091,
      "##ню": 1092,
      "##мент": 1093,
      "ска": 1094,
      "##ях": 1095,
      "##ене": 1096,
      "##дить": 1097,
      "##ках": 1098,
      "ор": 1099,
      "##бли": 1100,
      "эк": 1101,
      "##десь": 1102,
      "##тор": 1103,
      "какой": 1104,
      "##вого": 1105,
      "кру": 1106,
      "исполь": 1107,
      "##чит": 1108,
      "тер": 1109,
      "людей": 1110,
      "нам": 1111,
      "##ровать": 1112,
      "отно": 1113,
      ".-": 1114,
      "кре": 1115,
      "До": 1116,
      "через": 1117,
      "##этому": 1118,
      "человек": 1119,
      "##ников": 1120,
      "спе": 1121,
      "##ху": 1122,
      "##вед": 1123,
      "поло": 1124,
      "##it": 1125,
      "люди": 1126,
      "##ности": 1127,
      "##гово": 1128,
      "возможно": 1129,
      "##ставля": 1130,
      "##льный": 1131,
      "прав": 1132,
      "ответ": 1133,
      "##емы": 1134,
      "лучше": 1135,
      "201": 1136,
      "смот": 1137,
      "сп": 1138,
      "нау": 1139,
      "##ман": 1140,
      "вся": 1141,
      "сер": 1142,
      "##яс": 1143,
      "##емо": 1144,
      "##вания": 1145,
      "нем": 1146,
      "##рю": 1147,
      "##разу": 1148,
      "##зда": 1149,
      "фото": 1150,
      "##кий": 1151,
      "тебе": 1152,
      "тре": 1153,
      "##лов": 1154,
      "Пу": 1155,
      "##роде": 1156,
      "##чина": 1157,
      "##лек": 1158,
      "игра": 1159,
      "##рить": 1160,
      "##рия": 1161,
      "##рь": 1162,
      "чего": 1163,
      "всегда": 1164,
      "обо": 1165,
      "действи": 1166,
      "##его": 1167,
      "долж": 1168,
      "Те": 1169,
      "гру": 1170,
      "би": 1171,
      "спа": 1172,
      "Са": 1173,
      "расска": 1174,
      "соб": 1175,
      "##дя": 1176,
      "##кро": 1177,
      "##юще": 1178,
      "Го": 1179,
      "##виа": 1180,
      "##нуть": 1181,
      "отли": 1182,
      "ему": 1183,
      "выбо": 1184,
      "##жение": 1185,
      "ша": 1186,
      "##рая": 1187,
      "могу": 1188,
      "##st": 1189,
      "##ходит": 1190,
      "##дит": 1191,
      "##ряд": 1192,
      "оче": 1193,
      "два": 1194,
      "тогда": 1195,
      "##шие": 1196,
      "##шение": 1197,
      "##тия": 1198,
      "##зя": 1199,
      "##грам": 1200,
      "##ший": 1201,
      "будут": 1202,
      "##ью": 1203,
      "случае": 1204,
      "такое": 1205,
      "здесь": 1206,
      "делать": 1207,
      "##нд": 1208,
      "дан": 1209,
      "##шки": 1210,
      "маши": 1211,
      "##ема": 1212,
      "##нг": 1213,
      "##слу": 1214,
      "##ском": 1215,
      "##али": 1216,
      "##ент": 1217,
      "всем": 1218,
      "##тери": 1219,
      "хорошо": 1220,
      "##le": 1221,
      "самы": 1222,
      "пы": 1223,
      "##стве": 1224,
      "тру": 1225,
      "##кан": 1226,
      "дело": 1227,
      "пар": 1228,
      "##ья": 1229,
      "##теля": 1230,
      "обы": 1231,
      "##льта": 1232,
      "дви": 1233,
      "теперь": 1234,
      "свя": 1235,
      "##сибо": 1236,
      "##льше": 1237,
      "##вра": 1238,
      "место": 1239,
      "##жду": 1240,
      "жен": 1241,
      "##еха": 1242,
      "сист": 1243,
      "».": 1244,
      "##жения": 1245,
      "смо": 1246,
      "послед": 1247,
      "##будь": 1248,
      "##шел": 1249,
      "могут": 1250,
      "##стно": 1251,
      "##вается": 1252,
      "вой": 1253,
      "##rue": 1254,
      "##дели": 1255,
      "##ig": 1256,
      "##мни": 1257,
      "##лез": 1258,
      "доста": 1259,
      "например": 1260,
      "рус": 1261,
      "##мери": 1262,
      "вопрос": 1263,
      "обе": 1264,
      "кро": 1265,
      "##цев": 1266,
      "##туры": 1267,
      "true": 1268,
      "уби": 1269,
      "##чение": 1270,
      "ref": 1271,
      "##цу": 1272,
      "##стати": 1273,
      "ху": 1274,
      "сами": 1275,
      "##чный": 1276,
      "вме": 1277,
      "##чен": 1278,
      "##кру": 1279,
      "пря": 1280,
      "//": 1281,
      "##ступ": 1282,
      "##нно": 1283,
      "неко": 1284,
      "тра": 1285,
      "15": 1286,
      "сам": 1287,
      "парти": 1288,
      "##вание": 1289,
      "##рабо": 1290,
      "нибудь": 1291,
      "Из": 1292,
      "##льные": 1293,
      "##дня": 1294,
      "комп": 1295,
      "её": 1296,
      "ар": 1297,
      "##судар": 1298,
      "##тели": 1299,
      "фор": 1300,
      "..": 1301,
      "##цо": 1302,
      "##дел": 1303,
      "##нова": 1304,
      "фак": 1305,
      "Мне": 1306,
      "##ить": 1307,
      "пример": 1308,
      "##шего": 1309,
      "##вом": 1310,
      "либо": 1311,
      "росси": 1312,
      "сделать": 1313,
      "тво": 1314,
      ":)": 1315,
      "##фо": 1316,
      "эта": 1317,
      "##мина": 1318,
      "теле": 1319,
      "##\u0000\u0000\u0000\u0000\u0000\u0000\u0000\u0000\u0000\u0000\u0000\u0000\u0000\u0000\u0000\u0000\u0000\u0000\u0000\u0000\u0000\u0000\u0000\u0000\u0000\u0000\u0000\u0000\u0000\u0000\u0000\u0000": 1320,
      "Ре": 1321,
      "клавиа": 1322,
      "Они": 1323,
      "жизни": 1324,
      "пор": 1325,
      "произво": 1326,
      "высо": 1327,
      "ведь": 1328,
      "получа": 1329,
      "мно": 1330,
      "##три": 1331,
      "##жать": 1332,
      "##тура": 1333,
      "вра": 1334,
      "##лага": 1335,
      "##щем": 1336,
      "##ic": 1337,
      "свою": 1338,
      "над": 1339,
      "##деть": 1340,
      "иде": 1341,
      "три": 1342,
      "любо": 1343,
      "##дума": 1344,
      "##пера": 1345,
      "##нк": 1346,
      "##om": 1347,
      "несколько": 1348,
      "##зе": 1349,
      "поль": 1350,
      "##вым": 1351,
      "##ета": 1352,
      "##цион": 1353,
      "хотя": 1354,
      "Ми": 1355,
      "нико": 1356,
      "##ван": 1357,
      "##вро": 1358,
      "##сса": 1359,
      "##туа": 1360,
      "кар": 1361,
      "стоит": 1362,
      "##от": 1363,
      "##чка": 1364,
      "созда": 1365,
      "чита": 1366,
      "##шения": 1367,
      "##точно": 1368,
      "уда": 1369,
      "ге": 1370,
      "жа": 1371,
      "написа": 1372,
      "##шая": 1373,
      "##000": 1374,
      "##льных": 1375,
      "##дол": 1376,
      "которо": 1377,
      "##щу": 1378,
      "совсем": 1379,
      "фа": 1380,
      "орга": 1381,
      "норма": 1382,
      "##ети": 1383,
      "кор": 1384,
      "обще": 1385,
      "ци": 1386,
      "суще": 1387,
      "ха": 1388,
      "##тин": 1389,
      "обла": 1390,
      "Ве": 1391,
      "такие": 1392,
      "##ссо": 1393,
      "##дят": 1394,
      "##краи": 1395,
      "##номи": 1396,
      "мой": 1397,
      "самом": 1398,
      "против": 1399,
      "посмот": 1400,
      "##мой": 1401,
      "##цен": 1402,
      "милли": 1403,
      "вто": 1404,
      "сразу": 1405,
      "##свет": 1406,
      "специ": 1407,
      "эко": 1408,
      "##чество": 1409,
      "эту": 1410,
      "времени": 1411,
      "##блю": 1412,
      "##собенно": 1413,
      "полити": 1414,
      "##ним": 1415,
      "##стави": 1416,
      "прода": 1417,
      "##тро": 1418,
      "государ": 1419,
      "момент": 1420,
      "другой": 1421,
      "филь": 1422,
      "##телей": 1423,
      "##рода": 1424,
      "##пло": 1425,
      "кри": 1426,
      "##шли": 1427,
      "между": 1428,
      "ак": 1429,
      "##воз": 1430,
      "занима": 1431,
      "бра": 1432,
      "##лаго": 1433,
      "##el": 1434,
      "##ющих": 1435,
      "Или": 1436,
      "опре": 1437,
      "видео": 1438,
      "сказать": 1439,
      "году": 1440,
      "##зульта": 1441,
      "тот": 1442,
      "сем": 1443,
      "жизнь": 1444,
      "##вле": 1445,
      "##нить": 1446,
      "точно": 1447,
      "##шло": 1448,
      "##вести": 1449,
      "стро": 1450,
      "##ток": 1451,
      "уж": 1452,
      "##der": 1453,
      "##ское": 1454,
      "##шка": 1455,
      "уров": 1456,
      "##раз": 1457,
      "»,": 1458,
      "позво": 1459,
      "##лки": 1460,
      "уча": 1461,
      "бли": 1462,
      "##чить": 1463,
      "которая": 1464,
      "кого": 1465,
      "стол": 1466,
      "тя": 1467,
      "сред": 1468,
      "##стов": 1469,
      "##рот": 1470,
      "##нови": 1471,
      "##ключа": 1472,
      "смы": 1473,
      "##тить": 1474,
      "##риан": 1475,
      "##ющий": 1476,
      "##жем": 1477,
      "##ек": 1478,
      "согла": 1479,
      "скоро": 1480,
      "##нача": 1481,
      "деньги": 1482,
      "##той": 1483,
      "весь": 1484,
      "слова": 1485,
      "говоря": 1486,
      "кос": 1487,
      "##ческая": 1488,
      "реши": 1489,
      "##нако": 1490,
      "##чку": 1491,
      "##бор": 1492,
      "##яв": 1493,
      "##ким": 1494,
      "##вай": 1495,
      "ней": 1496,
      "##))": 1497,
      "шко": 1498,
      "##is": 1499,
      "##рован": 1500,
      "этих": 1501,
      "##hun": 1502,
      "мене": 1503,
      "человека": 1504,
      "Украи": 1505,
      "год": 1506,
      "никто": 1507,
      "##чения": 1508,
      "##нок": 1509,
      "пыта": 1510,
      "##дут": 1511,
      "##сом": 1512,
      "##ческие": 1513,
      "сви": 1514,
      "##льного": 1515,
      "ры": 1516,
      "откры": 1517,
      "мень": 1518,
      "глу": 1519,
      "кажется": 1520,
      "должен": 1521,
      "свой": 1522,
      "деле": 1523,
      "чер": 1524,
      "результа": 1525,
      "##ющие": 1526,
      "##вари": 1527,
      "спи": 1528,
      "##форма": 1529,
      "нуж": 1530,
      "##зм": 1531,
      "##рон": 1532,
      "##us": 1533,
      "##СС": 1534,
      "какие": 1535,
      "мало": 1536,
      "##вное": 1537,
      "своей": 1538,
      "12": 1539,
      "##ША": 1540,
      "почти": 1541,
      "хоть": 1542,
      "##прави": 1543,
      "Поч": 1544,
      "стать": 1545,
      "##дой": 1546,
      "Для": 1547,
      "ситуа": 1548,
      "##им": 1549,
      "значит": 1550,
      "##ht": 1551,
      "кни": 1552,
      "##дем": 1553,
      "##стру": 1554,
      "##ro": 1555,
      "##as": 1556,
      "##нию": 1557,
      "##ён": 1558,
      "этим": 1559,
      "США": 1560,
      "вос": 1561,
      "##ческой": 1562,
      "руб": 1563,
      "##гре": 1564,
      "##зад": 1565,
      "##чные": 1566,
      "моло": 1567,
      "##лон": 1568,
      "##дать": 1569,
      "##рую": 1570,
      "люби": 1571,
      "лишь": 1572,
      "перед": 1573,
      "сме": 1574,
      "##купа": 1575,
      "Ви": 1576,
      "##яви": 1577,
      "##пусти": 1578,
      "практи": 1579,
      "##нер": 1580,
      "##скую": 1581,
      "интер": 1582,
      "совер": 1583,
      "изве": 1584,
      "пот": 1585,
      "##ПР": 1586,
      "меся": 1587,
      "око": 1588,
      "начина": 1589,
      "назад": 1590,
      "Она": 1591,
      "Ста": 1592,
      "##нять": 1593,
      "должны": 1594,
      "##am": 1595,
      "##лект": 1596,
      "програм": 1597,
      "##льной": 1598,
      "хочу": 1599,
      "Па": 1600,
      "отде": 1601,
      "##шать": 1602,
      "следу": 1603,
      "ог": 1604,
      "##щая": 1605,
      "##чная": 1606,
      "##ность": 1607,
      "некоторы": 1608,
      "##ил": 1609,
      "явля": 1610,
      "равно": 1611,
      "##тки": 1612,
      "ри": 1613,
      "##щения": 1614,
      "многи": 1615,
      "реально": 1616,
      "стороны": 1617,
      "Де": 1618,
      "также": 1619,
      "сту": 1620,
      "похо": 1621,
      "попа": 1622,
      "##il": 1623,
      "думаю": 1624,
      "гу": 1625,
      "##ваю": 1626,
      "Под": 1627,
      "дома": 1628,
      "полно": 1629,
      "##дый": 1630,
      "ква": 1631,
      "плохо": 1632,
      "сли": 1633,
      "никогда": 1634,
      "Спа": 1635,
      "##виси": 1636,
      "достаточно": 1637,
      "##нем": 1638,
      "##яза": 1639,
      "Ли": 1640,
      "действительно": 1641,
      "##шим": 1642,
      "мн": 1643,
      "хоте": 1644,
      "##ложи": 1645,
      "хва": 1646,
      "уста": 1647,
      "вариан": 1648,
      "сколько": 1649,
      "кол": 1650,
      "##th": 1651,
      "показа": 1652,
      "##нди": 1653,
      "гражда": 1654,
      "совет": 1655,
      "##льное": 1656,
      "##лень": 1657,
      "##ческих": 1658,
      "упо": 1659,
      "##ремен": 1660,
      "##ol": 1661,
      "поэтому": 1662,
      "наде": 1663,
      "##бер": 1664,
      "писа": 1665,
      "##ствует": 1666,
      "##еты": 1667,
      "##крет": 1668,
      "Жи": 1669,
      "##правля": 1670,
      "Почему": 1671,
      "сказал": 1672,
      "вне": 1673,
      "##твер": 1674,
      "Может": 1675,
      "вроде": 1676,
      "##стран": 1677,
      "##лин": 1678,
      "сы": 1679,
      "],": 1680,
      "##вую": 1681,
      "ги": 1682,
      "id": 1683,
      "основ": 1684,
      "##рта": 1685,
      "РФ": 1686,
      "подсвет": 1687,
      "##кам": 1688,
      "##циона": 1689,
      "лично": 1690,
      "сего": 1691,
      "Ки": 1692,
      "100": 1693,
      "##рами": 1694,
      "Когда": 1695,
      "##!!": 1696,
      "ради": 1697,
      "##__": 1698,
      "наз": 1699,
      "органи": 1700,
      "лег": 1701,
      "навер": 1702,
      "##ческий": 1703,
      "##es": 1704,
      "##вайте": 1705,
      "большо": 1706,
      "##ac": 1707,
      "11": 1708,
      "Хоро": 1709,
      "подо": 1710,
      "дву": 1711,
      "таких": 1712,
      "гар": 1713,
      "##hunder": 1714,
      "##X3": 1715,
      "##чной": 1716,
      "##графи": 1717,
      "осо": 1718,
      "Thunder": 1719,
      "##стей": 1720,
      "которых": 1721,
      "сти": 1722,
      "экономи": 1723,
      "##кси": 1724,
      "непо": 1725,
      "ThunderX3": 1726,
      "благо": 1727,
      "имеет": 1728,
      "свет": 1729,
      "##im": 1730,
      "##полне": 1731,
      "понимаю": 1732,
      "##щение": 1733,
      "меньше": 1734,
      "##сут": 1735,
      "##пуска": 1736,
      "##ad": 1737,
      "зада": 1738,
      "##нием": 1739,
      "##зд": 1740,
      "проис": 1741,
      "проблема": 1742,
      "дер": 1743,
      "ды": 1744,
      "##жал": 1745,
      "##шен": 1746,
      "##ed": 1747,
      "интерес": 1748,
      "поддер": 1749,
      "уди": 1750,
      "сегодня": 1751,
      "##них": 1752,
      "которой": 1753,
      "##шин": 1754,
      "Только": 1755,
      "называ": 1756,
      "##нци": 1757,
      "##обра": 1758,
      "выше": 1759,
      "офи": 1760,
      "##чных": 1761,
      "удоб": 1762,
      "##рее": 1763,
      "усло": 1764,
      "куда": 1765,
      "части": 1766,
      "##льная": 1767,
      "##него": 1768,
      "других": 1769,
      "компа": 1770,
      "##рей": 1771,
      "выгля": 1772,
      "оказа": 1773,
      "##бро": 1774,
      "пси": 1775,
      "##строй": 1776,
      "##мерикан": 1777,
      "коли": 1778,
      "200": 1779,
      "наш": 1780,
      "##щий": 1781,
      "жела": 1782,
      "Спасибо": 1783,
      "гото": 1784,
      "##ight": 1785,
      "##рит": 1786,
      "##луй": 1787,
      "##рите": 1788,
      "закон": 1789,
      "своих": 1790,
      "мои": 1791,
      "##следо": 1792,
      "ши": 1793,
      "Ку": 1794,
      "##рах": 1795,
      "гей": 1796,
      "обяза": 1797,
      "россий": 1798,
      "##нти": 1799,
      "уви": 1800,
      "недо": 1801,
      "матери": 1802,
      "ад": 1803,
      "одного": 1804,
      "давно": 1805,
      "##ждения": 1806,
      "особенно": 1807,
      "проце": 1808,
      "##ur": 1809,
      "деся": 1810,
      "Россия": 1811,
      "ок": 1812,
      "информа": 1813,
      "глав": 1814,
      "Есть": 1815,
      "Ду": 1816,
      "собира": 1817,
      "тор": 1818,
      "##сить": 1819,
      "успе": 1820,
      "объяс": 1821,
      "##пере": 1822,
      "##ружи": 1823,
      "##лия": 1824,
      "30": 1825,
      "##чие": 1826,
      "нрави": 1827,
      "тыся": 1828,
      "кли": 1829,
      "прово": 1830,
      "пово": 1831,
      "часто": 1832,
      "разви": 1833,
      "Бу": 1834,
      "право": 1835,
      "оно": 1836,
      "##льзя": 1837,
      "учи": 1838,
      "##фон": 1839,
      "##ница": 1840,
      "Моск": 1841,
      "продол": 1842,
      "чув": 1843,
      "##жалуй": 1844,
      "##ктив": 1845,
      "##пить": 1846,
      "такая": 1847,
      "##вели": 1848,
      "##нт": 1849,
      "##ффе": 1850,
      "##еры": 1851,
      "Си": 1852,
      "немного": 1853,
      "зо": 1854,
      "места": 1855,
      "##ента": 1856,
      "##лн": 1857,
      "зем": 1858,
      "гарни": 1859,
      "стран": 1860,
      "##зом": 1861,
      "ваш": 1862,
      "часть": 1863,
      "поста": 1864,
      "##ССР": 1865,
      "мину": 1866,
      "одной": 1867,
      "внима": 1868,
      "##рев": 1869,
      "##рий": 1870,
      "элект": 1871,
      "ним": 1872,
      "призна": 1873,
      "зачем": 1874,
      "Просто": 1875,
      "пой": 1876,
      "вполне": 1877,
      "##куда": 1878,
      "одна": 1879,
      "##роб": 1880,
      "пара": 1881,
      "цвет": 1882,
      "##ятся": 1883,
      "##вала": 1884,
      "##нец": 1885,
      "50": 1886,
      "сот": 1887,
      "##рак": 1888,
      "срав": 1889,
      "##нали": 1890,
      "##казыва": 1891,
      "##реди": 1892,
      "ино": 1893,
      "прекра": 1894,
      "СССР": 1895,
      "язы": 1896,
      "укра": 1897,
      "подоб": 1898,
      "##пад": 1899,
      "способ": 1900,
      "сла": 1901,
      "the": 1902,
      "карти": 1903,
      "уго": 1904,
      "типа": 1905,
      "пода": 1906,
      "мони": 1907,
      "современ": 1908,
      ";&": 1909,
      "##гов": 1910,
      "еди": 1911,
      "уни": 1912,
      "##нки": 1913,
      "##хва": 1914,
      "Бе": 1915,
      "туда": 1916,
      "говорит": 1917,
      "Поэтому": 1918,
      "бес": 1919,
      "##ствие": 1920,
      "##лок": 1921,
      "попро": 1922,
      "##ским": 1923,
      "внут": 1924,
      "ссы": 1925,
      "заме": 1926,
      "дене": 1927,
      "тро": 1928,
      "##ций": 1929,
      "##цией": 1930,
      "##ing": 1931,
      "##чного": 1932,
      "##тан": 1933,
      "##еть": 1934,
      "ЕР": 1935,
      "##шком": 1936,
      "каждый": 1937,
      "забы": 1938,
      "##нами": 1939,
      "женщи": 1940,
      "режи": 1941,
      "##нологи": 1942,
      "##шенно": 1943,
      "Ла": 1944,
      "аб": 1945,
      "##ните": 1946,
      "све": 1947,
      "##кс": 1948,
      "чуть": 1949,
      "Там": 1950,
      "дово": 1951,
      "прият": 1952,
      "состоя": 1953,
      "##рию": 1954,
      "Ин": 1955,
      "##щих": 1956,
      "##ov": 1957,
      "побе": 1958,
      "##тие": 1959,
      "такого": 1960,
      "сте": 1961,
      "##нен": 1962,
      "свер": 1963,
      "##мена": 1964,
      "##пли": 1965,
      "должно": 1966,
      "сю": 1967,
      "##фа": 1968,
      "##тые": 1969,
      "понял": 1970,
      "##ленно": 1971,
      "##ерт": 1972,
      "необ": 1973,
      "свобо": 1974,
      "опы": 1975,
      "сильно": 1976,
      "##дко": 1977,
      "gt": 1978,
      "узна": 1979,
      "ули": 1980,
      "американ": 1981,
      "18": 1982,
      "##рения": 1983,
      "интересно": 1984,
      "защи": 1985,
      "мире": 1986,
      "Ме": 1987,
      "##лка": 1988,
      "##жо": 1989,
      "##стя": 1990,
      "##ква": 1991,
      "можете": 1992,
      "кстати": 1993,
      "правда": 1994,
      "##тами": 1995,
      "##ску": 1996,
      "каче": 1997,
      "##ваем": 1998,
      "спра": 1999,
      "##ссе": 2000,
      "исклю": 2001,
      "оши": 2002,
      "встре": 2003,
      "нельзя": 2004,
      "##нный": 2005,
      "прямо": 2006,
      "##нул": 2007,
      "##нения": 2008,
      "Кто": 2009,
      "25": 2010,
      "пост": 2011,
      "ря": 2012,
      "стре": 2013,
      "##мов": 2014,
      "работы": 2015,
      "##рко": 2016,
      "кно": 2017,
      "ей": 2018,
      "##рам": 2019,
      "##зиден": 2020,
      "##ницы": 2021,
      "##et": 2022,
      "мест": 2023,
      "игро": 2024,
      "Лю": 2025,
      "страны": 2026,
      "менее": 2027,
      "##стер": 2028,
      "покупа": 2029,
      "##чать": 2030,
      "##пута": 2031,
      "осно": 2032,
      "Пи": 2033,
      "##нах": 2034,
      "##что": 2035,
      "игры": 2036,
      "кроме": 2037,
      "мя": 2038,
      "пару": 2039,
      "мир": 2040,
      "##шла": 2041,
      "увер": 2042,
      "замет": 2043,
      "##дает": 2044,
      "месте": 2045,
      "Лу": 2046,
      "неза": 2047,
      "пос": 2048,
      "##ляр": 2049,
      "нравится": 2050,
      "##нес": 2051,
      "Ско": 2052,
      "этому": 2053,
      "види": 2054,
      "неу": 2055,
      "груп": 2056,
      "дальше": 2057,
      "минут": 2058,
      "слы": 2059,
      "тому": 2060,
      "находи": 2061,
      "##имо": 2062,
      "##кус": 2063,
      "эффе": 2064,
      "нео": 2065,
      "принци": 2066,
      "##av": 2067,
      "мет": 2068,
      "Од": 2069,
      "##явля": 2070,
      "##ляет": 2071,
      "После": 2072,
      "решение": 2073,
      "Хорошо": 2074,
      "Даже": 2075,
      "Зна": 2076,
      "Бы": 2077,
      "14": 2078,
      "Су": 2079,
      "коммента": 2080,
      "##чат": 2081,
      "вели": 2082,
      "##дель": 2083,
      "##мню": 2084,
      "нее": 2085,
      "насе": 2086,
      "##шно": 2087,
      "рак": 2088,
      "шу": 2089,
      "##нка": 2090,
      "##ёл": 2091,
      "опреде": 2092,
      "##ющим": 2093,
      "Вам": 2094,
      "Раз": 2095,
      "гор": 2096,
      "муж": 2097,
      "настоя": 2098,
      "предпо": 2099,
      "малень": 2100,
      "##ктор": 2101,
      "##лый": 2102,
      "общем": 2103,
      "##ял": 2104,
      "##тора": 2105,
      "обычно": 2106,
      "##вез": 2107,
      "##дро": 2108,
      "##зма": 2109,
      "##гру": 2110,
      "кур": 2111,
      "мини": 2112,
      "работать": 2113,
      "разу": 2114,
      "сим": 2115,
      "##тит": 2116,
      "!!!": 2117,
      "##дра": 2118,
      "##idth": 2119,
      "##height": 2120,
      "тол": 2121,
      "Ба": 2122,
      "власти": 2123,
      "##ответ": 2124,
      "##ческого": 2125,
      "денег": 2126,
      "услови": 2127,
      "работает": 2128,
      "##ut": 2129,
      "##тай": 2130,
      "##зать": 2131,
      "Еди": 2132,
      "здо": 2133,
      "смер": 2134,
      "##чей": 2135,
      "самое": 2136,
      "постоя": 2137,
      "цен": 2138,
      ";&#": 2139,
      "##ch": 2140,
      "реб": 2141,
      "##роят": 2142,
      "всю": 2143,
      "##пра": 2144,
      "##сен": 2145,
      "Потому": 2146,
      "##дви": 2147,
      "серь": 2148,
      "Сейчас": 2149,
      "необходи": 2150,
      "##страи": 2151,
      "таким": 2152,
      "другие": 2153,
      "уг": 2154,
      "двига": 2155,
      "##ёр": 2156,
      "##йн": 2157,
      "помощ": 2158,
      "##шку": 2159,
      "две": 2160,
      "##жешь": 2161,
      "##моби": 2162,
      "##рито": 2163,
      "ск": 2164,
      "опять": 2165,
      "##ье": 2166,
      "Хотя": 2167,
      "##тите": 2168,
      "##ством": 2169,
      "бро": 2170,
      "детей": 2171,
      "##держа": 2172,
      "##лит": 2173,
      "##...": 2174,
      "уч": 2175,
      "любой": 2176,
      "двух": 2177,
      "сама": 2178,
      "##стой": 2179,
      "ше": 2180,
      "причи": 2181,
      "использова": 2182,
      "нару": 2183,
      "##\u0000\u0000\u0000\u0000\u0000\u0000\u0000\u0000\u0000\u0000\u0000\u0000\u0000\u0000\u0000\u0000\u0000\u0000\u0000\u0000\u0000\u0000\u0000\u0000\u0000\u0000\u0000\u0000\u0000\u0000\u0000\u0000\u0000\u0000\u0000\u0000\u0000\u0000\u0000\u0000\u0000\u0000\u0000\u0000\u0000\u0000\u0000\u0000\u0000\u0000\u0000\u0000\u0000\u0000\u0000\u0000\u0000\u0000\u0000\u0000\u0000\u0000\u0000\u0000": 2184,
      "##дера": 2185,
      "случай": 2186,
      "фу": 2187,
      "часов": 2188,
      "00": 2189,
      "ново": 2190,
      "кварти": 2191,
      "##and": 2192,
      "##ступа": 2193,
      "ум": 2194,
      "является": 2195,
      "кому": 2196,
      "мар": 2197,
      "поме": 2198,
      "##рок": 2199,
      "##тый": 2200,
      "Жири": 2201,
      "красо": 2202,
      "какая": 2203,
      "##тельства": 2204,
      "##лить": 2205,
      "рублей": 2206,
      "##ie": 2207,
      "##бло": 2208,
      "##шает": 2209,
      "краси": 2210,
      "##чо": 2211,
      "##сколь": 2212,
      "проти": 2213,
      "##чик": 2214,
      "##чное": 2215,
      "##ir": 2216,
      "##жки": 2217,
      "Ле": 2218,
      "своим": 2219,
      "своего": 2220,
      "вместе": 2221,
      "найти": 2222,
      "огром": 2223,
      "##онов": 2224,
      "##лять": 2225,
      "оди": 2226,
      "скорее": 2227,
      "народ": 2228,
      "##ПРФ": 2229,
      "##ющей": 2230,
      "соци": 2231,
      "друг": 2232,
      "приходи": 2233,
      "##нав": 2234,
      "большин": 2235,
      "##ion": 2236,
      "##зации": 2237,
      "КПРФ": 2238,
      "тран": 2239,
      "технологи": 2240,
      "край": 2241,
      "пои": 2242,
      "первый": 2243,
      "физи": 2244,
      "совершенно": 2245,
      "##тят": 2246,
      "см": 2247,
      "##кли": 2248,
      "##дил": 2249,
      "Пере": 2250,
      "вол": 2251,
      "##гули": 2252,
      "моз": 2253,
      "микро": 2254,
      "##ствия": 2255,
      "##хов": 2256,
      "говорить": 2257,
      "##щен": 2258,
      "террито": 2259,
      "##мом": 2260,
      "##помни": 2261,
      "##зывать": 2262,
      "доба": 2263,
      "##енси": 2264,
      "стан": 2265,
      "##пита": 2266,
      "могли": 2267,
      "##тера": 2268,
      "##тах": 2269,
      "хочет": 2270,
      "идет": 2271,
      "спро": 2272,
      "говорят": 2273,
      "привы": 2274,
      "комплек": 2275,
      "##сили": 2276,
      "представля": 2277,
      "##грани": 2278,
      "поряд": 2279,
      "##пки": 2280,
      "небо": 2281,
      "##ян": 2282,
      "##чек": 2283,
      "##из": 2284,
      "повер": 2285,
      "котором": 2286,
      "смотреть": 2287,
      "около": 2288,
      "##сит": 2289,
      "долго": 2290,
      "Че": 2291,
      "##ходя": 2292,
      "распо": 2293,
      "шту": 2294,
      "кры": 2295,
      "насто": 2296,
      "город": 2297,
      "##щие": 2298,
      "стал": 2299,
      "глаза": 2300,
      "слишком": 2301,
      "сооб": 2302,
      "партии": 2303,
      "Мар": 2304,
      "практически": 2305,
      "отве": 2306,
      "##нят": 2307,
      "Пер": 2308,
      "##ставить": 2309,
      "##щего": 2310,
      "##20": 2311,
      "примерно": 2312,
      "наблю": 2313,
      "вместо": 2314,
      "мыши": 2315,
      "невоз": 2316,
      "##рует": 2317,
      "##ган": 2318,
      "##os": 2319,
      "##жите": 2320,
      "собой": 2321,
      "##там": 2322,
      "граждан": 2323,
      "##лета": 2324,
      "Кры": 2325,
      "правильно": 2326,
      "космо": 2327,
      "ито": 2328,
      "##ьте": 2329,
      "проду": 2330,
      "##леко": 2331,
      "использо": 2332,
      "##реб": 2333,
      "##ag": 2334,
      "жу": 2335,
      "доказа": 2336,
      "##равда": 2337,
      "конкрет": 2338,
      "мощ": 2339,
      "проблемы": 2340,
      "Евро": 2341,
      "знает": 2342,
      "\"?": 2343,
      "##рел": 2344,
      "Об": 2345,
      "##ждать": 2346,
      "##ждение": 2347,
      "##ik": 2348,
      "стране": 2349,
      "безо": 2350,
      "##зде": 2351,
      "##дка": 2352,
      "##воль": 2353,
      "ид": 2354,
      "пон": 2355,
      "коман": 2356,
      "##оне": 2357,
      "взгля": 2358,
      "##ям": 2359,
      "##или": 2360,
      "жить": 2361,
      "сложно": 2362,
      "уме": 2363,
      "##тка": 2364,
      "понятно": 2365,
      "впере": 2366,
      "##полни": 2367,
      "##тий": 2368,
      "играть": 2369,
      "важно": 2370,
      "плю": 2371,
      "спасибо": 2372,
      "##тина": 2373,
      "соответ": 2374,
      "##лё": 2375,
      "width": 2376,
      "height": 2377,
      "расс": 2378,
      "запи": 2379,
      "работу": 2380,
      "Воз": 2381,
      "##od": 2382,
      "##ктивно": 2383,
      "##тон": 2384,
      "##меня": 2385,
      "##).": 2386,
      "автомоби": 2387,
      "##ственный": 2388,
      "##рим": 2389,
      "потер": 2390,
      "##щей": 2391,
      "которого": 2392,
      "украин": 2393,
      "##жалуйста": 2394,
      "##кон": 2395,
      "разные": 2396,
      "выра": 2397,
      "##пасно": 2398,
      "быстро": 2399,
      "##сё": 2400,
      "появи": 2401,
      "энер": 2402,
      "иска": 2403,
      "должна": 2404,
      "деше": 2405,
      "##пара": 2406,
      "##льным": 2407,
      "зад": 2408,
      "##ьют": 2409,
      "опера": 2410,
      "каждо": 2411,
      "большой": 2412,
      "##гази": 2413,
      "##руют": 2414,
      "##хра": 2415,
      "##йт": 2416,
      "тяже": 2417,
      "##ньше": 2418,
      "образова": 2419,
      "коро": 2420,
      "Кстати": 2421,
      "рай": 2422,
      "##дете": 2423,
      "города": 2424,
      "логи": 2425,
      "##еру": 2426,
      "##нал": 2427,
      "000": 2428,
      "Ру": 2429,
      "разре": 2430,
      "фотографи": 2431,
      "реги": 2432,
      "обеспе": 2433,
      "##думы": 2434,
      "##работа": 2435,
      "##жит": 2436,
      "противо": 2437,
      "относи": 2438,
      "зву": 2439,
      "ал": 2440,
      "жив": 2441,
      "комму": 2442,
      "руко": 2443,
      "##гры": 2444,
      "##дитель": 2445,
      "диа": 2446,
      "##жении": 2447,
      "##читы": 2448,
      "40": 2449,
      "##лые": 2450,
      "Еще": 2451,
      "##сил": 2452,
      "очеви": 2453,
      "евро": 2454,
      "##дили": 2455,
      "##джет": 2456,
      "Пре": 2457,
      "16": 2458,
      "видел": 2459,
      "воен": 2460,
      "настолько": 2461,
      "##нам": 2462,
      "раньше": 2463,
      "##хода": 2464,
      "##ваются": 2465,
      "##нгли": 2466,
      "##враща": 2467,
      "образом": 2468,
      "обсу": 2469,
      "конце": 2470,
      "##клады": 2471,
      "количество": 2472,
      "посмотреть": 2473,
      "непри": 2474,
      "столько": 2475,
      "##все": 2476,
      "которую": 2477,
      "наверное": 2478,
      "магази": 2479,
      "ап": 2480,
      "##шем": 2481,
      "зависи": 2482,
      "президен": 2483,
      "вижу": 2484,
      "попы": 2485,
      "##дали": 2486,
      "первых": 2487,
      "убе": 2488,
      "Ди": 2489,
      "смог": 2490,
      "##лены": 2491,
      "второй": 2492,
      "запа": 2493,
      "демо": 2494,
      "довольно": 2495,
      "##шал": 2496,
      "деву": 2497,
      "of": 2498,
      "дня": 2499,
      "##ал": 2500,
      "....": 2501,
      "##дки": 2502,
      "##менты": 2503,
      "приня": 2504,
      "##дж": 2505,
      "Где": 2506,
      "##вался": 2507,
      "##мое": 2508,
      "возможность": 2509,
      "прове": 2510,
      "хи": 2511,
      "13": 2512,
      "друга": 2513,
      "##ске": 2514,
      "знать": 2515,
      "##чешь": 2516,
      "использу": 2517,
      "вашей": 2518,
      "##рту": 2519,
      "друз": 2520,
      "бю": 2521,
      "част": 2522,
      "живо": 2523,
      "##док": 2524,
      "закры": 2525,
      "обу": 2526,
      "ез": 2527,
      "##струк": 2528,
      "##солю": 2529,
      "##брать": 2530,
      "##мах": 2531,
      "##волю": 2532,
      "##дал": 2533,
      "##пил": 2534,
      "##дают": 2535,
      "возра": 2536,
      "##вили": 2537,
      "един": 2538,
      "невозможно": 2539,
      "беспо": 2540,
      "пропа": 2541,
      "##тых": 2542,
      "шо": 2543,
      "разных": 2544,
      "##наче": 2545,
      "заяв": 2546,
      "##ставка": 2547,
      "свое": 2548,
      "мол": 2549,
      "##рый": 2550,
      "##чает": 2551,
      "той": 2552,
      "##мум": 2553,
      "##лог": 2554,
      "хотел": 2555,
      "##шься": 2556,
      "Можно": 2557,
      "сосе": 2558,
      "Алек": 2559,
      "полез": 2560,
      "известно": 2561,
      "##ститу": 2562,
      "##гой": 2563,
      "Тут": 2564,
      "посте": 2565,
      "столе": 2566,
      "снова": 2567,
      "моей": 2568,
      "##дру": 2569,
      "ува": 2570,
      "Очень": 2571,
      "##вар": 2572,
      "##туру": 2573,
      "##вший": 2574,
      "##дио": 2575,
      "##ствовать": 2576,
      "доку": 2577,
      "описа": 2578,
      "##ata": 2579,
      "тысяч": 2580,
      "род": 2581,
      "меди": 2582,
      "понрави": 2583,
      "станови": 2584,
      "##ay": 2585,
      "знако": 2586,
      "##нные": 2587,
      "Теперь": 2588,
      "##зов": 2589,
      "##круг": 2590,
      "подума": 2591,
      "съ": 2592,
      "най": 2593,
      "Жиринов": 2594,
      "##чную": 2595,
      "##начала": 2596,
      "##шую": 2597,
      "##мости": 2598,
      "##зывает": 2599,
      "тек": 2600,
      "##руд": 2601,
      "##iv": 2602,
      "##енное": 2603,
      "раза": 2604,
      "Кон": 2605,
      "##ешься": 2606,
      "##так": 2607,
      "60": 2608,
      "##рио": 2609,
      "##сков": 2610,
      "происходит": 2611,
      "##нта": 2612,
      "##жей": 2613,
      "##тельство": 2614,
      "счет": 2615,
      "голосо": 2616,
      "сих": 2617,
      "##ТО": 2618,
      "##етесь": 2619,
      "утвер": 2620,
      "##жде": 2621,
      "тон": 2622,
      "Например": 2623,
      "in": 2624,
      "отсут": 2625,
      "##пей": 2626,
      "пользу": 2627,
      "##шек": 2628,
      "анти": 2629,
      "понять": 2630,
      "никак": 2631,
      "настро": 2632,
      "Вла": 2633,
      "преступ": 2634,
      "конку": 2635,
      "##чется": 2636,
      "самый": 2637,
      "пиш": 2638,
      "##бить": 2639,
      "моему": 2640,
      "помню": 2641,
      "повто": 2642,
      "##рил": 2643,
      "##ётся": 2644,
      "##гии": 2645,
      "##ющего": 2646,
      "некоторых": 2647,
      "Га": 2648,
      "наши": 2649,
      "##сл": 2650,
      ")))": 2651,
      "стали": 2652,
      "Се": 2653,
      "пове": 2654,
      "монитор": 2655,
      "##тельный": 2656,
      "связа": 2657,
      "принима": 2658,
      "?-": 2659,
      "##альные": 2660,
      "права": 2661,
      "исследо": 2662,
      "полностью": 2663,
      "##ями": 2664,
      "собствен": 2665,
      "которое": 2666,
      "##лова": 2667,
      "##няя": 2668,
      "контро": 2669,
      "##дова": 2670,
      "##цов": 2671,
      "))": 2672,
      "##чительно": 2673,
      "90": 2674,
      "стало": 2675,
      "собственно": 2676,
      "Дума": 2677,
      "##чер": 2678,
      "##сона": 2679,
      "провер": 2680,
      "17": 2681,
      "экс": 2682,
      "вариант": 2683,
      "##рос": 2684,
      "##сок": 2685,
      "##ub": 2686,
      "сделал": 2687,
      "##баты": 2688,
      "биз": 2689,
      "пози": 2690,
      "##гом": 2691,
      "оби": 2692,
      "миллионов": 2693,
      "пора": 2694,
      "##гать": 2695,
      "убий": 2696,
      "собы": 2697,
      "отказа": 2698,
      "мнение": 2699,
      "##жной": 2700,
      "далеко": 2701,
      "получается": 2702,
      "мето": 2703,
      "мас": 2704,
      "куль": 2705,
      "замеча": 2706,
      "объе": 2707,
      "дво": 2708,
      "НА": 2709,
      "зап": 2710,
      "которым": 2711,
      "верну": 2712,
      "##шее": 2713,
      "##лами": 2714,
      "##вших": 2715,
      "##вок": 2716,
      "произо": 2717,
      "##жить": 2718,
      "##стить": 2719,
      "##зить": 2720,
      "##ницу": 2721,
      "##ходят": 2722,
      "##над": 2723,
      "##бера": 2724,
      "каза": 2725,
      "##говор": 2726,
      "##мень": 2727,
      "чтоб": 2728,
      "##ent": 2729,
      "##ap": 2730,
      "##стри": 2731,
      "##цени": 2732,
      "##рд": 2733,
      "##ющая": 2734,
      "Всё": 2735,
      "AI": 2736,
      "##чным": 2737,
      "извест": 2738,
      "##того": 2739,
      "психо": 2740,
      "##их": 2741,
      "войны": 2742,
      "ана": 2743,
      "техни": 2744,
      "##спорт": 2745,
      "моя": 2746,
      "абсолю": 2747,
      "Пока": 2748,
      "дороги": 2749,
      "знаете": 2750,
      "##сах": 2751,
      "окру": 2752,
      "предо": 2753,
      "##кова": 2754,
      "включа": 2755,
      "клавиатуры": 2756,
      "##помина": 2757,
      "Правда": 2758,
      "##чера": 2759,
      "##йтесь": 2760,
      "простран": 2761,
      "наших": 2762,
      "##тая": 2763,
      "##тур": 2764,
      "пусть": 2765,
      "производ": 2766,
      "##нан": 2767,
      "цент": 2768,
      "иногда": 2769,
      "какого": 2770,
      "##ровая": 2771,
      "прид": 2772,
      "нашей": 2773,
      "Тогда": 2774,
      "##каз": 2775,
      "неде": 2776,
      "бан": 2777,
      "неболь": 2778,
      "##80": 2779,
      "серьез": 2780,
      "очеред": 2781,
      "нормально": 2782,
      "##щее": 2783,
      "меха": 2784,
      "никакого": 2785,
      "сни": 2786,
      "##готов": 2787,
      "вопросы": 2788,
      "профе": 2789,
      "ограни": 2790,
      "##вре": 2791,
      "делает": 2792,
      "предлага": 2793,
      "неда": 2794,
      "забо": 2795,
      "##лых": 2796,
      "арми": 2797,
      "мной": 2798,
      "Гер": 2799,
      "нена": 2800,
      "##зер": 2801,
      "гарнитуры": 2802,
      "##дешь": 2803,
      "##влека": 2804,
      "слово": 2805,
      "кило": 2806,
      "##мера": 2807,
      "AIR": 2808,
      "многие": 2809,
      "?\"": 2810,
      "##лой": 2811,
      "##тии": 2812,
      "Ти": 2813,
      "пенси": 2814,
      "data": 2815,
      "##служи": 2816,
      "какое": 2817,
      "попу": 2818,
      "взя": 2819,
      "##жный": 2820,
      "##выми": 2821,
      "измени": 2822,
      "ожи": 2823,
      "to": 2824,
      "##нение": 2825,
      "Вас": 2826,
      "##лку": 2827,
      "мед": 2828,
      "ощу": 2829,
      "представ": 2830,
      "нужен": 2831,
      "##тельные": 2832,
      "##тных": 2833,
      "проще": 2834,
      "ны": 2835,
      "никаких": 2836,
      "##стом": 2837,
      "всей": 2838,
      "рели": 2839,
      "Путин": 2840,
      "начала": 2841,
      "Конечно": 2842,
      "обеща": 2843,
      "##друг": 2844,
      "##лена": 2845,
      "поз": 2846,
      "истории": 2847,
      "##рачи": 2848,
      "участ": 2849,
      "установ": 2850,
      "силу": 2851,
      "депута": 2852,
      "Пар": 2853,
      "форма": 2854,
      "##лина": 2855,
      "##част": 2856,
      "сол": 2857,
      "случи": 2858,
      "использовать": 2859,
      "знаешь": 2860,
      "Сер": 2861,
      "##ологи": 2862,
      "родите": 2863,
      "вокруг": 2864,
      "##ческое": 2865,
      "##цей": 2866,
      "вещи": 2867,
      "особо": 2868,
      "буд": 2869,
      "круп": 2870,
      "легко": 2871,
      "ль": 2872,
      "##лях": 2873,
      "вид": 2874,
      "км": 2875,
      "ще": 2876,
      "стен": 2877,
      "отправи": 2878,
      "##ливо": 2879,
      "##вето": 2880,
      "оружи": 2881,
      "##ником": 2882,
      "отношения": 2883,
      "специально": 2884,
      "##вил": 2885,
      "хвата": 2886,
      "##хе": 2887,
      "##голо": 2888,
      "ошиб": 2889,
      "сможет": 2890,
      "постро": 2891,
      "##фици": 2892,
      "##жды": 2893,
      "##____": 2894,
      "##тный": 2895,
      ".\"": 2896,
      "вами": 2897,
      "итоге": 2898,
      "##анта": 2899,
      "##сур": 2900,
      "редко": 2901,
      "##нус": 2902,
      "переста": 2903,
      "##мати": 2904,
      "речь": 2905,
      "##тельная": 2906,
      "зат": 2907,
      "##лении": 2908,
      "##раб": 2909,
      "Зем": 2910,
      "шта": 2911,
      "говорю": 2912,
      "переда": 2913,
      "##буш": 2914,
      "##вич": 2915,
      "одну": 2916,
      "ужа": 2917,
      "офици": 2918,
      "##гами": 2919,
      "говорил": 2920,
      "##туре": 2921,
      "сожал": 2922,
      "каких": 2923,
      "##раздо": 2924,
      "дает": 2925,
      "вероят": 2926,
      "холо": 2927,
      "##дами": 2928,
      "кино": 2929,
      "мира": 2930,
      "факт": 2931,
      "пожалуйста": 2932,
      "материа": 2933,
      "##чее": 2934,
      "##ak": 2935,
      "##лер": 2936,
      "руки": 2937,
      "нако": 2938,
      "##ссии": 2939,
      "заня": 2940,
      "##бря": 2941,
      "##тельное": 2942,
      "##жает": 2943,
      "ними": 2944,
      "##ат": 2945,
      "чет": 2946,
      "##зор": 2947,
      "##кар": 2948,
      "##ровки": 2949,
      "зара": 2950,
      "##пря": 2951,
      "##писы": 2952,
      "разве": 2953,
      "сожалению": 2954,
      "сум": 2955,
      "##лан": 2956,
      "Му": 2957,
      "стри": 2958,
      "основном": 2959,
      "станет": 2960,
      "геро": 2961,
      "?!": 2962,
      "самые": 2963,
      "##ow": 2964,
      "колле": 2965,
      "доб": 2966,
      "##пили": 2967,
      "##ходить": 2968,
      "поводу": 2969,
      "постоянно": 2970,
      "рядом": 2971,
      "источ": 2972,
      "направ": 2973,
      "зар": 2974,
      "##чок": 2975,
      "сюда": 2976,
      "##ровали": 2977,
      "многих": 2978,
      "жур": 2979,
      "отре": 2980,
      "полови": 2981,
      "комна": 2982,
      "##скор": 2983,
      "тео": 2984,
      "самого": 2985,
      "##меть": 2986,
      "##рать": 2987,
      "выбор": 2988,
      "гейм": 2989,
      "##em": 2990,
      "крас": 2991,
      "дости": 2992,
      "чём": 2993,
      "требу": 2994,
      "нач": 2995,
      "делают": 2996,
      "вторы": 2997,
      "нужны": 2998,
      "##тные": 2999,
      "##um": 3000,
      "##зии": 3001,
      "##дах": 3002,
      "фильм": 3003,
      "кабе": 3004,
      "##публи": 3005,
      "долла": 3006,
      "##тесь": 3007,
      "Кра": 3008,
      "прошло": 3009,
      "получить": 3010,
      "##чества": 3011,
      "будем": 3012,
      "##щую": 3013,
      "##тное": 3014,
      "большие": 3015,
      "##ьи": 3016,
      "встреча": 3017,
      "нужна": 3018,
      "ус": 3019,
      "становится": 3020,
      "Ту": 3021,
      "##гает": 3022,
      "нали": 3023,
      "месяц": 3024,
      "англи": 3025,
      "##прия": 3026,
      "поверх": 3027,
      "##рети": 3028,
      "ситуация": 3029,
      "##обо": 3030,
      "##кре": 3031,
      "стар": 3032,
      "новый": 3033,
      "электро": 3034,
      "##ьютер": 3035,
      "близ": 3036,
      "##руется": 3037,
      "фе": 3038,
      "харак": 3039,
      "ори": 3040,
      "##фер": 3041,
      "##--": 3042,
      "199": 3043,
      "нес": 3044,
      "перио": 3045,
      "публи": 3046,
      "зрения": 3047,
      "национа": 3048,
      "числе": 3049,
      "одинако": 3050,
      "стала": 3051,
      "ваши": 3052,
      "st": 3053,
      "##сю": 3054,
      "##ul": 3055,
      "Пред": 3056,
      "очере": 3057,
      "##чке": 3058,
      "возду": 3059,
      "любого": 3060,
      "систем": 3061,
      "цвета": 3062,
      "##втра": 3063,
      "##ab": 3064,
      "продук": 3065,
      "дней": 3066,
      "##тили": 3067,
      "хочется": 3068,
      "зарпла": 3069,
      "интернет": 3070,
      "гораздо": 3071,
      "беспла": 3072,
      "вдруг": 3073,
      "треть": 3074,
      "экспе": 3075,
      "##нных": 3076,
      "хуже": 3077,
      "##ce": 3078,
      "видно": 3079,
      "соба": 3080,
      "сотруд": 3081,
      "??": 3082,
      "макси": 3083,
      "##скому": 3084,
      "##емые": 3085,
      "##шники": 3086,
      "одним": 3087,
      "##вались": 3088,
      "верси": 3089,
      "изу": 3090,
      "##цами": 3091,
      "цена": 3092,
      "вста": 3093,
      "коммуни": 3094,
      "дети": 3095,
      "каждого": 3096,
      "наи": 3097,
      "удо": 3098,
      "иначе": 3099,
      "власть": 3100,
      "поможет": 3101,
      "##лик": 3102,
      "лиш": 3103,
      "бывает": 3104,
      "точки": 3105,
      "либера": 3106,
      "другим": 3107,
      "похоже": 3108,
      "представи": 3109,
      "находится": 3110,
      "##тым": 3111,
      "##ложен": 3112,
      "некоторые": 3113,
      "ночь": 3114,
      "Ха": 3115,
      "подроб": 3116,
      "указа": 3117,
      "история": 3118,
      "стоя": 3119,
      "выво": 3120,
      "гря": 3121,
      "дом": 3122,
      "Герма": 3123,
      "##фт": 3124,
      "##ровал": 3125,
      "бло": 3126,
      "ам": 3127,
      "##дям": 3128,
      "мор": 3129,
      "##iew": 3130,
      "##зация": 3131,
      "система": 3132,
      "среди": 3133,
      "стола": 3134,
      "области": 3135,
      "проек": 3136,
      "##рин": 3137,
      "хозя": 3138,
      "умер": 3139,
      "страш": 3140,
      "измен": 3141,
      "##стан": 3142,
      "##вобо": 3143,
      "обязательно": 3144,
      "приш": 3145,
      "подтвер": 3146,
      "##ly": 3147,
      "хочешь": 3148,
      "##тей": 3149,
      "##печат": 3150,
      "##ген": 3151,
      "Путина": 3152,
      "Ком": 3153,
      "служ": 3154,
      "Зачем": 3155,
      "купить": 3156,
      "##нули": 3157,
      "китай": 3158,
      "прое": 3159,
      "##жные": 3160,
      "дерев": 3161,
      "взять": 3162,
      "требо": 3163,
      "##лая": 3164,
      "разли": 3165,
      "решил": 3166,
      "##чил": 3167,
      "разо": 3168,
      "Пет": 3169,
      "сек": 3170,
      "сторону": 3171,
      "##art": 3172,
      "уче": 3173,
      "##деква": 3174,
      "al": 3175,
      "уто": 3176,
      "порядке": 3177,
      "наро": 3178,
      "кнопки": 3179,
      "мат": 3180,
      "##ist": 3181,
      "##вной": 3182,
      "видимо": 3183,
      "откуда": 3184,
      "производите": 3185,
      "дея": 3186,
      "выпол": 3187,
      "##пози": 3188,
      "##вление": 3189,
      "##мини": 3190,
      "площа": 3191,
      "##даря": 3192,
      "##тики": 3193,
      "##льную": 3194,
      "сверху": 3195,
      "внимание": 3196,
      "##чёт": 3197,
      "повы": 3198,
      "поко": 3199,
      "бога": 3200,
      "уровня": 3201,
      "смысл": 3202,
      "косми": 3203,
      "нарко": 3204,
      "##еня": 3205,
      "Вообще": 3206,
      "##мос": 3207,
      "##50": 3208,
      "можешь": 3209,
      "##НО": 3210,
      "программи": 3211,
      "pre": 3212,
      "80": 3213,
      "##ющее": 3214,
      "##матри": 3215,
      "##12": 3216,
      "Однако": 3217,
      "главный": 3218,
      "четы": 3219,
      "##тил": 3220,
      "оте": 3221,
      "кле": 3222,
      "ребен": 3223,
      "Его": 3224,
      "бюджет": 3225,
      "прош": 3226,
      "##ческом": 3227,
      "##лам": 3228,
      "музы": 3229,
      "системы": 3230,
      "кресло": 3231,
      "##мый": 3232,
      "Россию": 3233,
      "механи": 3234,
      "##ческую": 3235,
      "Соб": 3236,
      "поддержи": 3237,
      "гаран": 3238,
      "##ленной": 3239,
      "обна": 3240,
      "снима": 3241,
      "спраши": 3242,
      "хотите": 3243,
      "Потом": 3244,
      "##мых": 3245,
      "главное": 3246,
      "план": 3247,
      "времен": 3248,
      "зво": 3249,
      "циф": 3250,
      "бума": 3251,
      "##альный": 3252,
      "Гла": 3253,
      "будете": 3254,
      "Надо": 3255,
      "уничто": 3256,
      "специали": 3257,
      "##нил": 3258,
      "ресур": 3259,
      "тему": 3260,
      "Влади": 3261,
      "серд": 3262,
      "##жай": 3263,
      "Украины": 3264,
      "##лого": 3265,
      "миро": 3266,
      "ситуации": 3267,
      "##мые": 3268,
      "персона": 3269,
      "##вшие": 3270,
      "такую": 3271,
      "Один": 3272,
      "влия": 3273,
      "тр": 3274,
      "перево": 3275,
      "зе": 3276,
      "##циа": 3277,
      "внутри": 3278,
      "населения": 3279,
      "готов": 3280,
      "Навер": 3281,
      "ибо": 3282,
      "##вши": 3283,
      "поез": 3284,
      "Сколько": 3285,
      "люблю": 3286,
      "бонус": 3287,
      "вперед": 3288,
      "другое": 3289,
      "##бята": 3290,
      "##нда": 3291,
      "своими": 3292,
      "and": 3293,
      "каким": 3294,
      "##ственной": 3295,
      "Ар": 3296,
      "запре": 3297,
      "сери": 3298,
      "##сят": 3299,
      "Ло": 3300,
      "Ника": 3301,
      "##фика": 3302,
      "Мак": 3303,
      "абсолютно": 3304,
      "брать": 3305,
      "##лением": 3306,
      "макро": 3307,
      "захо": 3308,
      "бом": 3309,
      "уверен": 3310,
      "бере": 3311,
      "пять": 3312,
      "смысле": 3313,
      "независи": 3314,
      "сом": 3315,
      "##мыш": 3316,
      "##тива": 3317,
      "доступ": 3318,
      "цены": 3319,
      "##пок": 3320,
      "##скольку": 3321,
      "вет": 3322,
      "пя": 3323,
      "##ствуют": 3324,
      "ката": 3325,
      "машины": 3326,
      "территории": 3327,
      "##ному": 3328,
      "##тельных": 3329,
      "управля": 3330,
      "##лко": 3331,
      "спорт": 3332,
      "наушники": 3333,
      "искать": 3334,
      "##оборот": 3335,
      "одном": 3336,
      "неме": 3337,
      "Смот": 3338,
      "##зь": 3339,
      "##кими": 3340,
      "качестве": 3341,
      "испы": 3342,
      "отлича": 3343,
      "##лению": 3344,
      "разрабо": 3345,
      "##ческим": 3346,
      "##хать": 3347,
      "оцени": 3348,
      "##ведения": 3349,
      "микрофон": 3350,
      "Фе": 3351,
      "##лете": 3352,
      ".,": 3353,
      "108": 3354,
      "мере": 3355,
      "##виду": 3356,
      "##лено": 3357,
      "разме": 3358,
      "ски": 3359,
      "##рое": 3360,
      "##нной": 3361,
      "хотят": 3362,
      "##D3": 3363,
      "##дания": 3364,
      "##били": 3365,
      "поса": 3366,
      "коло": 3367,
      "секу": 3368,
      "распро": 3369,
      "##нит": 3370,
      "цель": 3371,
      "##нке": 3372,
      "минимум": 3373,
      "Кар": 3374,
      "увели": 3375,
      "##тика": 3376,
      "Москве": 3377,
      "##груз": 3378,
      "##ременно": 3379,
      "Чу": 3380,
      "компании": 3381,
      "##og": 3382,
      "вторых": 3383,
      "##йдет": 3384,
      "Нико": 3385,
      "##держи": 3386,
      "##жных": 3387,
      "голову": 3388,
      "ску": 3389,
      "тобой": 3390,
      "##EX": 3391,
      "можем": 3392,
      "##смотря": 3393,
      "конкурен": 3394,
      "насколько": 3395,
      "##60": 3396,
      "##комен": 3397,
      "##сами": 3398,
      "клавиатура": 3399,
      "ат": 3400,
      "озна": 3401,
      "Дж": 3402,
      "думал": 3403,
      "##нили": 3404,
      "аль": 3405,
      "St": 3406,
      "##дина": 3407,
      "Ст": 3408,
      "##гия": 3409,
      "Возможно": 3410,
      "связи": 3411,
      "сначала": 3412,
      "стандар": 3413,
      "th": 3414,
      "Украине": 3415,
      "предло": 3416,
      "##ct": 3417,
      "ца": 3418,
      "очередь": 3419,
      "##рования": 3420,
      "##нятно": 3421,
      "дра": 3422,
      "##тельности": 3423,
      "##ехал": 3424,
      "празд": 3425,
      "моего": 3426,
      "реак": 3427,
      "выборы": 3428,
      "##читать": 3429,
      "тупо": 3430,
      "людям": 3431,
      "пути": 3432,
      "упа": 3433,
      "работе": 3434,
      "##емся": 3435,
      "вовсе": 3436,
      "21": 3437,
      "шут": 3438,
      "здоров": 3439,
      "весьма": 3440,
      ";.": 3441,
      "##НА": 3442,
      "Сто": 3443,
      "кем": 3444,
      "##ясь": 3445,
      "экспери": 3446,
      "##рина": 3447,
      "написал": 3448,
      "паль": 3449,
      "##лла": 3450,
      "городе": 3451,
      "спокой": 3452,
      "придума": 3453,
      "горо": 3454,
      "##ter": 3455,
      "##ставки": 3456,
      "будто": 3457,
      "какую": 3458,
      "##РО": 3459,
      "##пас": 3460,
      "##дыду": 3461,
      "внеш": 3462,
      "демокра": 3463,
      "тепло": 3464,
      "##90": 3465,
      "есте": 3466,
      "Тем": 3467,
      "целом": 3468,
      "##вен": 3469,
      "##дим": 3470,
      "сделали": 3471,
      "##кну": 3472,
      "##лле": 3473,
      "##рого": 3474,
      "гарнитура": 3475,
      "писать": 3476,
      "##ехать": 3477,
      "отнош": 3478,
      "##вании": 3479,
      "UC": 3480,
      "##нин": 3481,
      "канди": 3482,
      "приго": 3483,
      "пунк": 3484,
      ".)": 3485,
      "Ан": 3486,
      "Отли": 3487,
      "##скими": 3488,
      "мета": 3489,
      "произ": 3490,
      "HEX": 3491,
      "Кро": 3492,
      "отлично": 3493,
      "строи": 3494,
      "ED3": 3495,
      "UC5": 3496,
      "изви": 3497,
      "шан": 3498,
      "медици": 3499,
      "игру": 3500,
      "24": 3501,
      "Ри": 3502,
      "дополни": 3503,
      "момента": 3504,
      "кандида": 3505,
      "##бур": 3506,
      "##if": 3507,
      "Интере": 3508,
      "неё": 3509,
      "имеют": 3510,
      "оцен": 3511,
      "газ": 3512,
      "##ристи": 3513,
      "неиз": 3514,
      "вза": 3515,
      "нашел": 3516,
      "считаю": 3517,
      "##чая": 3518,
      "##view": 3519,
      "##жали": 3520,
      "##бри": 3521,
      "##ленных": 3522,
      "новые": 3523,
      "существо": 3524,
      "ладно": 3525,
      "Ладно": 3526,
      "##дится": 3527,
      "!\"": 3528,
      "##щик": 3529,
      "##нется": 3530,
      "запу": 3531,
      "фанта": 3532,
      "##гли": 3533,
      "Всем": 3534,
      "внутрен": 3535,
      "каса": 3536,
      "хватит": 3537,
      "наше": 3538,
      "государства": 3539,
      "##чением": 3540,
      "##юз": 3541,
      "большинство": 3542,
      "друзья": 3543,
      "##стите": 3544,
      "низ": 3545,
      "##ok": 3546,
      "финан": 3547,
      "пользова": 3548,
      "суб": 3549,
      "##тел": 3550,
      "##СТ": 3551,
      "мужи": 3552,
      "знал": 3553,
      "##тке": 3554,
      "##дное": 3555,
      "домой": 3556,
      "сма": 3557,
      "##зву": 3558,
      "##ложить": 3559,
      "вкус": 3560,
      "гре": 3561,
      "ненави": 3562,
      "##альных": 3563,
      "##пом": 3564,
      "рекла": 3565,
      "бер": 3566,
      "##жка": 3567,
      "##вало": 3568,
      "памя": 3569,
      "##тельной": 3570,
      "собра": 3571,
      "читать": 3572,
      "##ленные": 3573,
      "взгляд": 3574,
      "отра": 3575,
      "##шить": 3576,
      "Чтобы": 3577,
      "Привет": 3578,
      "заво": 3579,
      "говно": 3580,
      "непло": 3581,
      "стоимо": 3582,
      "##стика": 3583,
      "##рование": 3584,
      "##ую": 3585,
      "истори": 3586,
      "кораб": 3587,
      "пле": 3588,
      "самой": 3589,
      "##никами": 3590,
      "везде": 3591,
      "##енера": 3592,
      "иметь": 3593,
      "##==": 3594,
      "500": 3595,
      "Особенно": 3596,
      "##ктора": 3597,
      "массо": 3598,
      "клю": 3599,
      "тка": 3600,
      "##\u0000\u0000\u0000\u0000\u0000\u0000\u0000\u0000\u0000\u0000\u0000\u0000\u0000\u0000\u0000\u0000\u0000\u0000\u0000\u0000\u0000\u0000\u0000\u0000\u0000\u0000\u0000\u0000\u0000\u0000\u0000\u0000\u0000\u0000\u0000\u0000\u0000\u0000\u0000\u0000\u0000\u0000\u0000\u0000\u0000\u0000\u0000\u0000\u0000\u0000\u0000\u0000\u0000\u0000\u0000\u0000\u0000\u0000\u0000\u0000\u0000\u0000\u0000\u0000\u0000\u0000\u0000\u0000\u0000\u0000\u0000\u0000\u0000\u0000\u0000\u0000\u0000\u0000\u0000\u0000\u0000\u0000\u0000\u0000\u0000\u0000\u0000\u0000\u0000\u0000\u0000\u0000\u0000\u0000\u0000\u0000\u0000\u0000\u0000\u0000\u0000\u0000\u0000\u0000\u0000\u0000\u0000\u0000\u0000\u0000\u0000\u0000\u0000\u0000\u0000\u0000\u0000\u0000\u0000\u0000\u0000\u0000\u0000\u0000\u0000\u0000\u0000\u0000": 3601,
      "англий": 3602,
      "##пон": 3603,
      "устро": 3604,
      "зу": 3605,
      "Вер": 3606,
      "прочи": 3607,
      "жерт": 3608,
      "поле": 3609,
      "вспомни": 3610,
      "##гло": 3611,
      "##дии": 3612,
      "безопасно": 3613,
      "##прос": 3614,
      "предыду": 3615,
      "оказалось": 3616,
      "обви": 3617,
      "мое": 3618,
      "##щать": 3619,
      "preview": 3620,
      "мусо": 3621,
      "##цам": 3622,
      "орби": 3623,
      "##ссу": 3624,
      "честно": 3625,
      "начал": 3626,
      "##ou": 3627,
      "другу": 3628,
      "ими": 3629,
      "##чивать": 3630,
      "Оп": 3631,
      "Меня": 3632,
      "##сторон": 3633,
      "идти": 3634,
      "ЛД": 3635,
      "мыс": 3636,
      "##рят": 3637,
      "##эй": 3638,
      "##ia": 3639,
      "Ведь": 3640,
      "##зоваться": 3641,
      "чисто": 3642,
      "планет": 3643,
      "уровень": 3644,
      "Ча": 3645,
      "реали": 3646,
      "Думаю": 3647,
      "виду": 3648,
      "поро": 3649,
      "##жку": 3650,
      "##чис": 3651,
      "Дру": 3652,
      "70": 3653,
      "наоборот": 3654,
      "благодаря": 3655,
      "принципе": 3656,
      "завтра": 3657,
      "##ёз": 3658,
      "##тивно": 3659,
      "##ору": 3660,
      "##мира": 3661,
      "##емый": 3662,
      "##ваете": 3663,
      "улице": 3664,
      "скорость": 3665,
      "тело": 3666,
      "данные": 3667,
      "выглядит": 3668,
      "машину": 3669,
      "зло": 3670,
      "Фи": 3671,
      "оде": 3672,
      "народа": 3673,
      "кад": 3674,
      "##пов": 3675,
      "##нев": 3676,
      "выда": 3677,
      "управ": 3678,
      "22": 3679,
      "##ra": 3680,
      "автор": 3681,
      "Чи": 3682,
      "##нку": 3683,
      "четыре": 3684,
      "##ЕН": 3685,
      "капита": 3686,
      "добро": 3687,
      "##мить": 3688,
      "##торов": 3689,
      "Ска": 3690,
      "задумы": 3691,
      "Именно": 3692,
      "угодно": 3693,
      "лицо": 3694,
      "воды": 3695,
      "суд": 3696,
      "коми": 3697,
      "##эр": 3698,
      "приве": 3699,
      "дево": 3700,
      "яр": 3701,
      "##лений": 3702,
      "люб": 3703,
      "##ствии": 3704,
      "Согла": 3705,
      "осу": 3706,
      "хватает": 3707,
      "такими": 3708,
      "помощью": 3709,
      "##клон": 3710,
      "опла": 3711,
      "бое": 3712,
      "##бенок": 3713,
      "##рели": 3714,
      "##бов": 3715,
      "выход": 3716,
      "первой": 3717,
      "##дения": 3718,
      "остальное": 3719,
      "самых": 3720,
      "##цем": 3721,
      "закончи": 3722,
      "дают": 3723,
      "меч": 3724,
      "стара": 3725,
      "##рич": 3726,
      "гос": 3727,
      "жо": 3728,
      "таком": 3729,
      "##зал": 3730,
      "годы": 3731,
      "##кло": 3732,
      "Сан": 3733,
      "созна": 3734,
      "чему": 3735,
      "часа": 3736,
      "ниже": 3737,
      "##ev": 3738,
      "пита": 3739,
      "аппара": 3740,
      "##цеп": 3741,
      "преду": 3742,
      "##льном": 3743,
      "##ственное": 3744,
      "##рово": 3745,
      "выго": 3746,
      "##новременно": 3747,
      "регули": 3748,
      "помочь": 3749,
      "темпера": 3750,
      "Рас": 3751,
      "впечат": 3752,
      "##рук": 3753,
      "2016": 3754,
      "анали": 3755,
      "необходимо": 3756,
      "всяких": 3757,
      "неделю": 3758,
      "##тар": 3759,
      "изнача": 3760,
      "##пени": 3761,
      "Жириновский": 3762,
      "професси": 3763,
      "##ss": 3764,
      "уровне": 3765,
      "существует": 3766,
      "##руп": 3767,
      "ЛДПР": 3768,
      "300": 3769,
      "форму": 3770,
      "##дился": 3771,
      "сути": 3772,
      "другом": 3773,
      "Эй": 3774,
      "сравни": 3775,
      "настрой": 3776,
      "сколь": 3777,
      "вело": 3778,
      "разго": 3779,
      "##нице": 3780,
      "##шта": 3781,
      "мер": 3782,
      "очередной": 3783,
      "товари": 3784,
      "погово": 3785,
      "мысли": 3786,
      "##дже": 3787,
      "бизнес": 3788,
      "##рем": 3789,
      "борь": 3790,
      "##тен": 3791,
      "##тельность": 3792,
      "Дело": 3793,
      "дать": 3794,
      "вирту": 3795,
      "партия": 3796,
      "выбира": 3797,
      "напря": 3798,
      "выяс": 3799,
      "представить": 3800,
      "##тим": 3801,
      "ваших": 3802,
      "окон": 3803,
      "занимает": 3804,
      "млн": 3805,
      "мело": 3806,
      "##вшего": 3807,
      "согласен": 3808,
      "отда": 3809,
      "##чики": 3810,
      "##сер": 3811,
      "##бели": 3812,
      "информации": 3813,
      "сда": 3814,
      "##санд": 3815,
      "глаз": 3816,
      "Доб": 3817,
      "радо": 3818,
      "возможности": 3819,
      "ныне": 3820,
      "последние": 3821,
      "##op": 3822,
      "менедж": 3823,
      "маль": 3824,
      "##рили": 3825,
      "##тельного": 3826,
      "сро": 3827,
      "##гах": 3828,
      "##жают": 3829,
      "оказыва": 3830,
      "сра": 3831,
      "##дный": 3832,
      "##тали": 3833,
      "##щает": 3834,
      "##ha": 3835,
      "позволяет": 3836,
      "##фона": 3837,
      "прочие": 3838,
      "##зем": 3839,
      "##гна": 3840,
      "##вей": 3841,
      "аргу": 3842,
      "Боль": 3843,
      "прекрасно": 3844,
      "##тать": 3845,
      "наблюда": 3846,
      "освобо": 3847,
      "нор": 3848,
      "высоко": 3849,
      "хороший": 3850,
      "##лья": 3851,
      "тю": 3852,
      "диза": 3853,
      "##хоже": 3854,
      "сказала": 3855,
      "удоволь": 3856,
      "упомина": 3857,
      "вече": 3858,
      "##жном": 3859,
      "каком": 3860,
      "##кура": 3861,
      "##шими": 3862,
      "##прочем": 3863,
      "##сон": 3864,
      "посе": 3865,
      "##вяза": 3866,
      "подоз": 3867,
      "другого": 3868,
      "##юга": 3869,
      "знают": 3870,
      "##принима": 3871,
      "##бая": 3872,
      "##нику": 3873,
      "##тной": 3874,
      "##дного": 3875,
      "##ментов": 3876,
      "##фу": 3877,
      "##шай": 3878,
      "##МИ": 3879,
      "патри": 3880,
      "##рица": 3881,
      "ото": 3882,
      "##преде": 3883,
      "посту": 3884,
      "простой": 3885,
      "размер": 3886,
      "довер": 3887,
      "телефон": 3888,
      "##дую": 3889,
      "запрет": 3890,
      "Наверное": 3891,
      "Оста": 3892,
      "любом": 3893,
      "кожа": 3894,
      "начали": 3895,
      "##тек": 3896,
      "##дку": 3897,
      "##дох": 3898,
      "страну": 3899,
      "опыт": 3900,
      "сайт": 3901,
      "##ep": 3902,
      "##гина": 3903,
      "Более": 3904,
      "Гу": 3905,
      "Крым": 3906,
      "плани": 3907,
      "ребенок": 3908,
      "##рик": 3909,
      "одновременно": 3910,
      "150": 3911,
      "##рыв": 3912,
      "Поль": 3913,
      "явно": 3914,
      "никакой": 3915,
      "Пе": 3916,
      "Россий": 3917,
      "заба": 3918,
      "##ставляет": 3919,
      "Этот": 3920,
      "##фы": 3921,
      "мужчи": 3922,
      "золо": 3923,
      "пришлось": 3924,
      "сохра": 3925,
      "##жется": 3926,
      "##лке": 3927,
      "приво": 3928,
      "законо": 3929,
      "##мую": 3930,
      "отправля": 3931,
      "##емых": 3932,
      "##АР": 3933,
      "удиви": 3934,
      "Ничего": 3935,
      "захва": 3936,
      "Александ": 3937,
      "помни": 3938,
      "умень": 3939,
      "причем": 3940,
      "##рки": 3941,
      "##17": 3942,
      "ан": 3943,
      "фана": 3944,
      "угро": 3945,
      "револю": 3946,
      "##гер": 3947,
      "##дия": 3948,
      "прос": 3949,
      "##льт": 3950,
      "знаком": 3951,
      "##пада": 3952,
      "терро": 3953,
      "##щим": 3954,
      "получил": 3955,
      "Кроме": 3956,
      "пры": 3957,
      "Нава": 3958,
      "##жела": 3959,
      "элем": 3960,
      "секрет": 3961,
      "##lo": 3962,
      "считать": 3963,
      "эмо": 3964,
      "рассказыва": 3965,
      "лета": 3966,
      "сц": 3967,
      "коле": 3968,
      "первую": 3969,
      "##нюю": 3970,
      "##жаться": 3971,
      "написано": 3972,
      "##стрее": 3973,
      "##сей": 3974,
      "##ственного": 3975,
      "свето": 3976,
      "популяр": 3977,
      "любы": 3978,
      "##мая": 3979,
      "##зон": 3980,
      "восста": 3981,
      "историю": 3982,
      "миллиар": 3983,
      "смерти": 3984,
      "##ваний": 3985,
      "недавно": 3986,
      "первом": 3987,
      "##ственные": 3988,
      "сна": 3989,
      "##гие": 3990,
      "23": 3991,
      "девай": 3992,
      "всему": 3993,
      "##вшись": 3994,
      "условиях": 3995,
      "##ванием": 3996,
      "ау": 3997,
      "агре": 3998,
      "The": 3999,
      "неве": 4000,
      "решения": 4001,
      "поку": 4002,
      "ию": 4003,
      "десять": 4004,
      "решили": 4005,
      "пись": 4006,
      "гро": 4007,
      "##жнее": 4008,
      "##дные": 4009,
      "зато": 4010,
      "Больше": 4011,
      "Чем": 4012,
      "безу": 4013,
      "##ришь": 4014,
      "вст": 4015,
      "страна": 4016,
      "зря": 4017,
      "винова": 4018,
      "##рение": 4019,
      "конца": 4020,
      "раст": 4021,
      "поги": 4022,
      "мнению": 4023,
      "Фран": 4024,
      "восто": 4025,
      "пого": 4026,
      "остальных": 4027,
      "сторон": 4028,
      "пожа": 4029,
      "судь": 4030,
      "причина": 4031,
      "работ": 4032,
      "компьютер": 4033,
      "##her": 4034,
      "солн": 4035,
      "Без": 4036,
      "включая": 4037,
      "##пор": 4038,
      "неф": 4039,
      "изначально": 4040,
      "функ": 4041,
      "писал": 4042,
      "##чены": 4043,
      "##няет": 4044,
      "##министра": 4045,
      "телеви": 4046,
      "разру": 4047,
      "поняли": 4048,
      "уважа": 4049,
      "долларов": 4050,
      "конструк": 4051,
      "действия": 4052,
      "##кет": 4053,
      "раду": 4054,
      "супер": 4055,
      "рез": 4056,
      "несмотря": 4057,
      "Вели": 4058,
      "##лах": 4059,
      "своё": 4060,
      "обратно": 4061,
      "всеми": 4062,
      "стати": 4063,
      "плюс": 4064,
      "##мать": 4065,
      "##навли": 4066,
      "##ственных": 4067,
      "государство": 4068,
      "##бре": 4069,
      "нового": 4070,
      "трудно": 4071,
      "скры": 4072,
      "##жели": 4073,
      "Единой": 4074,
      "##вит": 4075,
      "преж": 4076,
      "ставить": 4077,
      "##ff": 4078,
      "твой": 4079,
      "зи": 4080,
      "карто": 4081,
      "пережи": 4082,
      "выска": 4083,
      "спут": 4084,
      "##ехали": 4085,
      "ею": 4086,
      "вку": 4087,
      "хра": 4088,
      "эффект": 4089,
      "НЕ": 4090,
      "возь": 4091,
      "атмос": 4092,
      "тема": 4093,
      "называется": 4094,
      "##нете": 4095,
      "тормо": 4096,
      "остальные": 4097,
      "##ведение": 4098,
      "##они": 4099,
      "ут": 4100,
      "##ck": 4101,
      "выз": 4102,
      ";,": 4103,
      "поскольку": 4104,
      "избе": 4105,
      "##шке": 4106,
      "##ейс": 4107,
      "##чал": 4108,
      "тради": 4109,
      "топли": 4110,
      "ПО": 4111,
      "следует": 4112,
      "##лями": 4113,
      "хуй": 4114,
      "получилось": 4115,
      "крити": 4116,
      "Здесь": 4117,
      "спосо": 4118,
      "провести": 4119,
      "века": 4120,
      "##КО": 4121,
      "##нике": 4122,
      "##вки": 4123,
      "##цент": 4124,
      "##щаться": 4125,
      "мама": 4126,
      "Авто": 4127,
      "след": 4128,
      "##чкой": 4129,
      "немец": 4130,
      "фран": 4131,
      "##грать": 4132,
      "напи": 4133,
      "май": 4134,
      "результате": 4135,
      "##дца": 4136,
      "затем": 4137,
      "##никам": 4138,
      "ремо": 4139,
      "прет": 4140,
      "помощь": 4141,
      "кам": 4142,
      "курсе": 4143,
      "##эн": 4144,
      "идея": 4145,
      "##10": 4146,
      "Слу": 4147,
      "разница": 4148,
      "рекомен": 4149,
      "потре": 4150,
      "недоста": 4151,
      "##жден": 4152,
      "согласи": 4153,
      "тяжело": 4154,
      "ого": 4155,
      "нашего": 4156,
      "постави": 4157,
      "определ": 4158,
      "внимания": 4159,
      "Коро": 4160,
      "руковод": 4161,
      "далее": 4162,
      "алкого": 4163,
      "вчера": 4164,
      "режим": 4165,
      "##хом": 4166,
      "ров": 4167,
      "пото": 4168,
      "результат": 4169,
      "участи": 4170,
      "первого": 4171,
      "##шите": 4172,
      "видите": 4173,
      "устраи": 4174,
      "случаях": 4175,
      "прекрас": 4176,
      "скорости": 4177,
      "##чай": 4178,
      "европей": 4179,
      "##ri": 4180,
      "аж": 4181,
      "##нная": 4182,
      "сказали": 4183,
      "##вный": 4184,
      "выс": 4185,
      "болез": 4186,
      "##чнее": 4187,
      "посо": 4188,
      "получится": 4189,
      "Амери": 4190,
      "комфор": 4191,
      "##чили": 4192,
      "##егодня": 4193,
      "столом": 4194,
      "цели": 4195,
      "##пира": 4196,
      "глуби": 4197,
      "##бора": 4198,
      "##ka": 4199,
      "работают": 4200,
      "пес": 4201,
      "бывают": 4202,
      "гром": 4203,
      "выбра": 4204,
      "оппози": 4205,
      "##ъез": 4206,
      "сен": 4207,
      "провод": 4208,
      "зависит": 4209,
      "штука": 4210,
      "##хание": 4211,
      "##лье": 4212,
      "голове": 4213,
      "назна": 4214,
      "час": 4215,
      "107": 4216,
      "искус": 4217,
      "сет": 4218,
      "сня": 4219,
      "проверить": 4220,
      "Им": 4221,
      "слов": 4222,
      "книги": 4223,
      "поверхности": 4224,
      "Единая": 4225,
      "##альным": 4226,
      "роли": 4227,
      "моих": 4228,
      "##ндро": 4229,
      "##емая": 4230,
      "##ково": 4231,
      "силы": 4232,
      "придется": 4233,
      "##РА": 4234,
      "##ственная": 4235,
      "машина": 4236,
      "пят": 4237,
      "##ленный": 4238,
      "##тку": 4239,
      "##лев": 4240,
      "Ага": 4241,
      "Сегодня": 4242,
      "делаю": 4243,
      "Иг": 4244,
      "запла": 4245,
      "##интере": 4246,
      "ответственно": 4247,
      "мышь": 4248,
      "нажа": 4249,
      "сосед": 4250,
      "##По": 4251,
      "##дишь": 4252,
      "Владими": 4253,
      "наконец": 4254,
      "полиции": 4255,
      "сне": 4256,
      "проте": 4257,
      "##чий": 4258,
      "тан": 4259,
      "##ум": 4260,
      "##чета": 4261,
      "дли": 4262,
      "скажу": 4263,
      "##40": 4264,
      "весе": 4265,
      "Зюга": 4266,
      "спаса": 4267,
      "!).": 4268,
      "##альная": 4269,
      "сре": 4270,
      "процесс": 4271,
      "сидеть": 4272,
      "фра": 4273,
      "глубо": 4274,
      "образ": 4275,
      "увидеть": 4276,
      "Кор": 4277,
      "рам": 4278,
      "##bo": 4279,
      "прибы": 4280,
      "никому": 4281,
      "##хран": 4282,
      "просты": 4283,
      "##эро": 4284,
      "кабель": 4285,
      "дем": 4286,
      "начале": 4287,
      "одному": 4288,
      "Совет": 4289,
      "состоянии": 4290,
      "подса": 4291,
      "могла": 4292,
      "бак": 4293,
      "смысла": 4294,
      "##ключить": 4295,
      "имею": 4296,
      "давайте": 4297,
      "запад": 4298,
      "помощи": 4299,
      "Попро": 4300,
      "##муще": 4301,
      "##сипе": 4302,
      "даль": 4303,
      "##емой": 4304,
      "##ляют": 4305,
      "##ствую": 4306,
      "##дание": 4307,
      "верно": 4308,
      "конф": 4309,
      "##бом": 4310,
      "?)": 4311,
      "своем": 4312,
      "последний": 4313,
      "##телем": 4314,
      "видеть": 4315,
      "утра": 4316,
      "казалось": 4317,
      "пользоваться": 4318,
      "разбира": 4319,
      "##ванию": 4320,
      "времена": 4321,
      "большая": 4322,
      "пов": 4323,
      "имя": 4324,
      "класси": 4325,
      "месяцев": 4326,
      "нема": 4327,
      "чинов": 4328,
      "симмет": 4329,
      "##гар": 4330,
      "##альное": 4331,
      "##жений": 4332,
      "##шой": 4333,
      "удобно": 4334,
      "##жут": 4335,
      "##народ": 4336,
      "##оз": 4337,
      "##гно": 4338,
      "##щему": 4339,
      "##дёт": 4340,
      "сердце": 4341,
      "##писать": 4342,
      "рассмот": 4343,
      "##гал": 4344,
      "##дам": 4345,
      "красоты": 4346,
      "##оти": 4347,
      "думать": 4348,
      "##вов": 4349,
      "случилось": 4350,
      "водо": 4351,
      "проре": 4352,
      "побо": 4353,
      "возвраща": 4354,
      "##кта": 4355,
      "##дной": 4356,
      "дни": 4357,
      "##лым": 4358,
      "приятно": 4359,
      "##нного": 4360,
      "центра": 4361,
      "ясно": 4362,
      "##чении": 4363,
      "многое": 4364,
      "кана": 4365,
      "##пен": 4366,
      "комплекте": 4367,
      "выхо": 4368,
      "##пуск": 4369,
      "гаранти": 4370,
      "печа": 4371,
      "язык": 4372,
      "живут": 4373,
      "35": 4374,
      "оправ": 4375,
      "AM": 4376,
      "отношение": 4377,
      "догово": 4378,
      "тай": 4379,
      "заг": 4380,
      "ребенка": 4381,
      "Ци": 4382,
      "процен": 4383,
      "осве": 4384,
      "дели": 4385,
      "##спубли": 4386,
      "очевидно": 4387,
      "##альной": 4388,
      "никого": 4389,
      "однако": 4390,
      "##енности": 4391,
      "##лежа": 4392,
      "##вь": 4393,
      "неправи": 4394,
      "##дьми": 4395,
      "##жением": 4396,
      "прочее": 4397,
      "вес": 4398,
      "Уже": 4399,
      "слышал": 4400,
      "Май": 4401,
      "##рые": 4402,
      "тыс": 4403,
      "##шед": 4404,
      "оли": 4405,
      "##ъе": 4406,
      "##раи": 4407,
      "##пле": 4408,
      "Интересно": 4409,
      "##кому": 4410,
      "путь": 4411,
      "Их": 4412,
      "##ation": 4413,
      "глупо": 4414,
      "превраща": 4415,
      "##ензи": 4416,
      "самая": 4417,
      "появля": 4418,
      "##шит": 4419,
      "узнать": 4420,
      "новых": 4421,
      "Собственно": 4422,
      "???": 4423,
      "непре": 4424,
      "профессиона": 4425,
      "Посмот": 4426,
      "странно": 4427,
      "боя": 4428,
      "пробе": 4429,
      "##верь": 4430,
      "нему": 4431,
      "##пно": 4432,
      "##тная": 4433,
      "##лл": 4434,
      "##ствием": 4435,
      "ракет": 4436,
      "бри": 4437,
      "Меха": 4438,
      "номер": 4439,
      "мебели": 4440,
      "щел": 4441,
      "##енность": 4442,
      "##шали": 4443,
      "Би": 4444,
      "потреб": 4445,
      "##руются": 4446,
      "##пустить": 4447,
      "быстрее": 4448,
      "озву": 4449,
      "едино": 4450,
      "парень": 4451,
      "##ant": 4452,
      "цер": 4453,
      "метро": 4454,
      "кое": 4455,
      "##мар": 4456,
      "глад": 4457,
      "маленький": 4458,
      "месяца": 4459,
      "неплохо": 4460,
      "##треб": 4461,
      "знаем": 4462,
      "##гам": 4463,
      "госпо": 4464,
      "##ers": 4465,
      "##валось": 4466,
      "дура": 4467,
      "содержа": 4468,
      "##чё": 4469,
      "##чиков": 4470,
      "присут": 4471,
      "опро": 4472,
      "##ферен": 4473,
      "##оны": 4474,
      "Лени": 4475,
      "пишу": 4476,
      "осозна": 4477,
      "##мыс": 4478,
      "платить": 4479,
      "русских": 4480,
      "##кои": 4481,
      "учены": 4482,
      "##рес": 4483,
      "голосовать": 4484,
      "Дже": 4485,
      "##след": 4486,
      "инстру": 4487,
      "множе": 4488,
      "аналоги": 4489,
      "##пка": 4490,
      "Вол": 4491,
      "успо": 4492,
      "реш": 4493,
      "солда": 4494,
      "##невая": 4495,
      "##сюда": 4496,
      "велосипе": 4497,
      "людьми": 4498,
      "положи": 4499,
      "##таться": 4500,
      "##ace": 4501,
      "превра": 4502,
      "##вест": 4503,
      "ракеты": 4504,
      "##тельным": 4505,
      "##частли": 4506,
      "кнопок": 4507,
      "##пода": 4508,
      "жена": 4509,
      "сх": 4510,
      "##мм": 4511,
      "##чами": 4512,
      "нынеш": 4513,
      "хотелось": 4514,
      "геймер": 4515,
      "упомя": 4516,
      "##ковых": 4517,
      "##няка": 4518,
      "данном": 4519,
      "несколь": 4520,
      "##тации": 4521,
      "##льник": 4522,
      "заявля": 4523,
      "##валась": 4524,
      "матема": 4525,
      "##нное": 4526,
      "разы": 4527,
      "##жность": 4528,
      "клавиатуре": 4529,
      "Механи": 4530,
      "выи": 4531,
      "##лай": 4532,
      "Ис": 4533,
      "возмо": 4534,
      "нагруз": 4535,
      "напро": 4536,
      "клавиатуру": 4537,
      "привлека": 4538,
      "юри": 4539,
      "Какой": 4540,
      "##шёл": 4541,
      "Значит": 4542,
      "Люди": 4543,
      "осталось": 4544,
      "беско": 4545,
      "мышки": 4546,
      "##новить": 4547,
      "2014": 4548,
      "проект": 4549,
      "обой": 4550,
      "ав": 4551,
      "мора": 4552,
      "нашли": 4553,
      "начинает": 4554,
      "администра": 4555,
      "##тически": 4556,
      "гри": 4557,
      "движения": 4558,
      "война": 4559,
      "потеря": 4560,
      "##ВО": 4561,
      "Эти": 4562,
      "Давайте": 4563,
      "лица": 4564,
      "##вные": 4565,
      "эпи": 4566,
      "##стях": 4567,
      "##бую": 4568,
      "##рючок": 4569,
      "выборах": 4570,
      "бор": 4571,
      "##лосо": 4572,
      "Германии": 4573,
      "учиты": 4574,
      "трех": 4575,
      "широ": 4576,
      "работаю": 4577,
      "исключительно": 4578,
      "корот": 4579,
      "запуска": 4580,
      "##зра": 4581,
      "голоса": 4582,
      "Фо": 4583,
      "##рика": 4584,
      "##тего": 4585,
      "игровая": 4586,
      "##тивный": 4587,
      "следующий": 4588,
      "##чика": 4589,
      "##30": 4590,
      "подсветка": 4591,
      "настройка": 4592,
      "Вто": 4593,
      "пространство": 4594,
      "прям": 4595,
      "подробно": 4596,
      "утвержда": 4597,
      "##нулся": 4598,
      "px": 4599,
      "##киды": 4600,
      "##ваешь": 4601,
      "##рез": 4602,
      "студен": 4603,
      "будешь": 4604,
      "le": 4605,
      "##жь": 4606,
      "герой": 4607,
      "##вка": 4608,
      "An": 4609,
      "##дных": 4610,
      "Нам": 4611,
      "отрегули": 4612,
      "крайне": 4613,
      "свидете": 4614,
      "##гуляр": 4615,
      "##бил": 4616,
      "трав": 4617,
      "дорогой": 4618,
      "русский": 4619,
      "кг": 4620,
      "##мены": 4621,
      "возник": 4622,
      "универ": 4623,
      "приме": 4624,
      "прико": 4625,
      "поми": 4626,
      "выжи": 4627,
      "сай": 4628,
      "привести": 4629,
      "подсветкой": 4630,
      "сюжет": 4631,
      "##one": 4632,
      "дешевле": 4633,
      "радио": 4634,
      "##ib": 4635,
      "пут": 4636,
      "мысль": 4637,
      "##гни": 4638,
      "##ваюсь": 4639,
      "AK": 4640,
      "рези": 4641,
      "75": 4642,
      "стиле": 4643,
      "Луч": 4644,
      "Какие": 4645,
      "194": 4646,
      "##шают": 4647,
      "программиру": 4648,
      "максима": 4649,
      "обнаружи": 4650,
      "показыва": 4651,
      "примен": 4652,
      "##читал": 4653,
      "регулировки": 4654,
      "подсветку": 4655,
      "масса": 4656,
      "прожи": 4657,
      "##йся": 4658,
      "сил": 4659,
      "крайней": 4660,
      "##дила": 4661,
      "школе": 4662,
      "AH": 4663,
      "игровое": 4664,
      "нами": 4665,
      "подставка": 4666,
      "исти": 4667,
      "##дож": 4668,
      "примеру": 4669,
      "##леты": 4670,
      "активно": 4671,
      "##жная": 4672,
      "ассо": 4673,
      "Лично": 4674,
      "прорези": 4675,
      "квартире": 4676,
      "объек": 4677,
      "##меется": 4678,
      "пона": 4679,
      "хло": 4680,
      "кожаными": 4681,
      "непонят": 4682,
      "##вин": 4683,
      "хле": 4684,
      "нежном": 4685,
      "##пах": 4686,
      "сты": 4687,
      "паци": 4688,
      "говорите": 4689,
      "самым": 4690,
      "останови": 4691,
      "ваша": 4692,
      "##мость": 4693,
      "зао": 4694,
      "прорезинен": 4695,
      "правило": 4696,
      "приходится": 4697,
      "амбуш": 4698,
      "амбушю": 4699,
      "замо": 4700,
      "бол": 4701,
      "услы": 4702,
      "макросов": 4703,
      "##ведливо": 4704,
      "оконча": 4705,
      "AH7": 4706,
      "AM7": 4707,
      "горя": 4708,
      "Сам": 4709,
      "услу": 4710,
      "AK7": 4711,
      "написать": 4712,
      "бата": 4713,
      "заслужи": 4714,
      "##лят": 4715,
      "id2": 4716,
      "данный": 4717,
      "выбора": 4718,
      "##ссы": 4719,
      "##ниц": 4720,
      "!)": 4721,
      "##стами": 4722,
      "##еди": 4723,
      "##диться": 4724,
      "##––": 4725,
      "использования": 4726,
      "подпи": 4727,
      "развития": 4728,
      "читал": 4729,
      "инжен": 4730,
      "зака": 4731,
      "##бовать": 4732,
      "идёт": 4733,
      "хими": 4734,
      "дав": 4735,
      "камер": 4736,
      "винов": 4737,
      "уро": 4738,
      "генера": 4739,
      "человеку": 4740,
      "27": 4741,
      "карма": 4742,
      "##кров": 4743,
      "удалось": 4744,
      "Сле": 4745,
      "сере": 4746,
      "Ге": 4747,
      "##мат": 4748,
      "##ich": 4749,
      "Прави": 4750,
      "плане": 4751,
      "копи": 4752,
      "понимаете": 4753,
      "Изви": 4754,
      "мел": 4755,
      "In": 4756,
      "избира": 4757,
      "##шему": 4758,
      "данных": 4759,
      "катего": 4760,
      "##енти": 4761,
      "привет": 4762,
      "кров": 4763,
      "дере": 4764,
      "45": 4765,
      "службы": 4766,
      "##ллю": 4767,
      "нер": 4768,
      "Самое": 4769,
      "сравн": 4770,
      "мою": 4771,
      "##гают": 4772,
      "ваше": 4773,
      "##менить": 4774,
      "##тво": 4775,
      "##льными": 4776,
      "##бок": 4777,
      "путе": 4778,
      "религи": 4779,
      "##мин": 4780,
      "##бере": 4781,
      "Пло": 4782,
      "##КА": 4783,
      "мотива": 4784,
      "касается": 4785,
      "идут": 4786,
      "Мой": 4787,
      "бля": 4788,
      "уши": 4789,
      "бар": 4790,
      "думаете": 4791,
      "насчет": 4792,
      "##мили": 4793,
      "##сам": 4794,
      "реа": 4795,
      "##доро": 4796,
      "##шкой": 4797,
      "##кви": 4798,
      "##мят": 4799,
      "принад": 4800,
      "##телям": 4801,
      "армии": 4802,
      "##лети": 4803,
      "сопро": 4804,
      "типи": 4805,
      "авиа": 4806,
      "Эта": 4807,
      "хотели": 4808,
      "намного": 4809,
      "Итак": 4810,
      "отрица": 4811,
      "##сыпа": 4812,
      "определя": 4813,
      "иди": 4814,
      "##шни": 4815,
      "полага": 4816,
      "##рена": 4817,
      "бабу": 4818,
      "Анд": 4819,
      "##поло": 4820,
      "цивили": 4821,
      "безопасности": 4822,
      "##пень": 4823,
      "фильма": 4824,
      "##рно": 4825,
      "##чными": 4826,
      "фаши": 4827,
      "##тое": 4828,
      "психи": 4829,
      "относительно": 4830,
      "##ort": 4831,
      "28": 4832,
      "##нья": 4833,
      "Пол": 4834,
      "моде": 4835,
      "устрой": 4836,
      "##кала": 4837,
      "##вится": 4838,
      "сча": 4839,
      "Исто": 4840,
      "электри": 4841,
      "недели": 4842,
      "Пра": 4843,
      "##стями": 4844,
      "заяви": 4845,
      "##ходы": 4846,
      "ран": 4847,
      "инди": 4848,
      "Ещё": 4849,
      "метров": 4850,
      "фон": 4851,
      "##способ": 4852,
      "буква": 4853,
      "##тября": 4854,
      "средства": 4855,
      "##чено": 4856,
      "Ша": 4857,
      "Челове": 4858,
      "##клад": 4859,
      "##луч": 4860,
      "начать": 4861,
      "прили": 4862,
      "##ost": 4863,
      "##мым": 4864,
      "##кать": 4865,
      "оба": 4866,
      "##ld": 4867,
      "##менти": 4868,
      "отец": 4869,
      "чо": 4870,
      "позна": 4871,
      "мяг": 4872,
      "веще": 4873,
      "группы": 4874,
      "##рас": 4875,
      "убира": 4876,
      "ужас": 4877,
      "##дан": 4878,
      "рассчиты": 4879,
      "карту": 4880,
      "##сток": 4881,
      "##пой": 4882,
      "спокойно": 4883,
      "preview_": 4884,
      "расши": 4885,
      "Причем": 4886,
      "##кости": 4887,
      "разум": 4888,
      "клу": 4889,
      "говорили": 4890,
      "##ame": 4891,
      "##гали": 4892,
      "26": 4893,
      "францу": 4894,
      "##терна": 4895,
      "ближай": 4896,
      "света": 4897,
      "Давай": 4898,
      "класс": 4899,
      "контра": 4900,
      "список": 4901,
      "гло": 4902,
      "Наде": 4903,
      "региона": 4904,
      "##ob": 4905,
      "пика": 4906,
      "чувство": 4907,
      "разде": 4908,
      "объяснить": 4909,
      "впер": 4910,
      "Гос": 4911,
      "иностран": 4912,
      "##ностью": 4913,
      "произошло": 4914,
      "видели": 4915,
      "живу": 4916,
      "##рка": 4917,
      "##гей": 4918,
      "##титься": 4919,
      "##eg": 4920,
      "Пусть": 4921,
      "Sp": 4922,
      "##хуй": 4923,
      "##тного": 4924,
      "оправды": 4925,
      "прежде": 4926,
      "систему": 4927,
      "общения": 4928,
      "##фри": 4929,
      "an": 4930,
      "нечего": 4931,
      "##датель": 4932,
      "##ГО": 4933,
      "Федера": 4934,
      "взаимо": 4935,
      "уз": 4936,
      "информацию": 4937,
      "мясо": 4938,
      "##поли": 4939,
      "масшта": 4940,
      "ходить": 4941,
      "поря": 4942,
      "##11": 4943,
      "##обрет": 4944,
      "##веде": 4945,
      "огромное": 4946,
      "Через": 4947,
      "##СА": 4948,
      "зер": 4949,
      "поля": 4950,
      "%.": 4951,
      "пропаган": 4952,
      "одни": 4953,
      "наша": 4954,
      "##up": 4955,
      "женщина": 4956,
      "Никто": 4957,
      "став": 4958,
      "другому": 4959,
      "интересу": 4960,
      "Полу": 4961,
      "##вав": 4962,
      "качество": 4963,
      "компания": 4964,
      "##няется": 4965,
      "означает": 4966,
      "ага": 4967,
      "##пан": 4968,
      "##ющими": 4969,
      "сможете": 4970,
      "##делить": 4971,
      "чест": 4972,
      "имел": 4973,
      "отмет": 4974,
      "расположен": 4975,
      "чува": 4976,
      "зве": 4977,
      "русские": 4978,
      "взял": 4979,
      "роль": 4980,
      "родствен": 4981,
      "испол": 4982,
      ";)": 4983,
      "всякие": 4984,
      "вопросов": 4985,
      "Вопрос": 4986,
      "покры": 4987,
      "воспо": 4988,
      ":-": 4989,
      "##вью": 4990,
      "приходилось": 4991,
      "Чер": 4992,
      "мать": 4993,
      "Гово": 4994,
      "живет": 4995,
      "##зора": 4996,
      "##ick": 4997,
      "разно": 4998,
      "##кин": 4999,
      "рассматри": 5000,
      "Миха": 5001,
      "##нести": 5002,
      "##чём": 5003,
      "смарт": 5004,
      "длин": 5005,
      "Сразу": 5006,
      "профи": 5007,
      "стоять": 5008,
      "##НИ": 5009,
      "##рут": 5010,
      "Ги": 5011,
      "##чии": 5012,
      "заряд": 5013,
      "отличный": 5014,
      "изобра": 5015,
      "баб": 5016,
      "400": 5017,
      "струк": 5018,
      "неа": 5019,
      "аэро": 5020,
      "постав": 5021,
      "теме": 5022,
      "сцена": 5023,
      "##ive": 5024,
      "##стую": 5025,
      "телефо": 5026,
      "пишут": 5027,
      "остав": 5028,
      "число": 5029,
      "##образ": 5030
    }
  }
}